{
  "version": "1.0",
  "truncation": null,
  "padding": null,
  "added_tokens": [
    {
      "id": 128000,
      "content": "<|begin_of_text|>",
      "single_word": false,
      "lstrip": false,
      "rstrip": false,
      "normalized": false,
      "special": true
    },
    {
      "id": 128001,
      "content": "<|end_of_text|>",
      "single_word": false,
      "lstrip": false,
      "rstrip": false,
      "normalized": false,
      "special": true
    },
    {
      "id": 128002,
      "content": "<|start_header_id|>",
      "single_word": false,
      "lstrip": false,
      "rstrip": false,
      "normalized": false,
      "special": true
    },
    {
      "id": 128003,
      "content": "<|end_header_id|>",
      "single_word": false,
      "lstrip": false,
      "rstrip": false,
      "normalized": false,
      "special": true
    },
    {
      "id": 128004,
      "content": "<|eot_id|>",
      "single_word": false,
      "lstrip": false,
      "rstrip": false,
      "normalized": false,
      "special": true
    },
    {
      "id": 128005,
      "content": "<|eom_id|>",
      "single_word": false,
      "lstrip": false,
      "rstrip": false,
      "normalized": false,
      "special": true
    },
    {
      "id": 128006,
      "content": "<|python_tag|>",
      "single_word": false,
      "lstrip": false,
      "rstrip": false,
      "normalized": false,
      "special": true
    },
    {
      "id": 128007,
      "content": "<|NONE|>",
      "single_word": false,
      "lstrip": false,
      "rstrip": false,
      "normalized": false,
      "special": true
    },
    {
      "id": 128008,
      "content": "<|endoftext|>",
      "single_word": false,
      "lstrip": false,
      "rstrip": false,
      "normalized": false,
      "special": true
    },
    {
      "id": 128009,
      "content": "<|im_start|>",
      "single_word": false,
      "lstrip": false,
      "rstrip": false,
      "normalized": false,
      "special": true
    },
    {
      "id": 128010,
      "content": "<|im_end|>",
      "single_word": false,
      "lstrip": false,
      "rstrip": false,
      "normalized": false,
      "special": true
    },
    {
      "id": 128011,
      "content": "<|object_ref_start|>",
      "single_word": false,
      "lstrip": false,
      "rstrip": false,
      "normalized": false,
      "special": true
    },
    {
      "id": 128012,
      "content": "<|object_ref_end|>",
      "single_word": false,
      "lstrip": false,
      "rstrip": false,
      "normalized": false,
      "special": true
    },
    {
      "id": 128013,
      "content": "<|box_start|>",
      "single_word": false,
      "lstrip": false,
      "rstrip": false,
      "normalized": false,
      "special": true
    },
    {
      "id": 128014,
      "content": "<|box_end|>",
      "single_word": false,
      "lstrip": false,
      "rstrip": false,
      "normalized": false,
      "special": true
    },
    {
      "id": 128015,
      "content": "<|quad_start|>",
      "single_word": false,
      "lstrip": false,
      "rstrip": false,
      "normalized": false,
      "special": true
    },
    {
      "id": 128016,
      "content": "<|quad_end|>",
      "single_word": false,
      "lstrip": false,
      "rstrip": false,
      "normalized": false,
      "special": true
    },
    {
      "id": 128017,
      "content": "<|vision_start|>",
      "single_word": false,
      "lstrip": false,
      "rstrip": false,
      "normalized": false,
      "special": true
    },
    {
      "id": 128018,
      "content": "<|vision_end|>",
      "single_word": false,
      "lstrip": false,
      "rstrip": false,
      "normalized": false,
      "special": true
    },
    {
      "id": 128019,
      "content": "<|vision_pad|>",
      "single_word": false,
      "lstrip": false,
      "rstrip": false,
      "normalized": false,
      "special": true
    },
    {
      "id": 128020,
      "content": "<|image_pad|>",
      "single_word": false,
      "lstrip": false,
      "rstrip": false,
      "normalized": false,
      "special": true
    },
    {
      "id": 128021,
      "content": "<|video_pad|>",
      "single_word": false,
      "lstrip": false,
      "rstrip": false,
      "normalized": false,
      "special": true
    },
    {
      "id": 128022,
      "content": "<tool_call>",
      "single_word": false,
      "lstrip": false,
      "rstrip": false,
      "normalized": false,
      "special": false
    },
    {
      "id": 128023,
      "content": "</tool_call>",
      "single_word": false,
      "lstrip": false,
      "rstrip": false,
      "normalized": false,
      "special": false
    },
    {
      "id": 128024,
      "content": "<|fim_prefix|>",
      "single_word": false,
      "lstrip": false,
      "rstrip": false,
      "normalized": false,
      "special": true
    },
    {
      "id": 128025,
      "content": "<|fim_middle|>",
      "single_word": false,
      "lstrip": false,
      "rstrip": false,
      "normalized": false,
      "special": true
    },
    {
      "id": 128026,
      "content": "<|fim_suffix|>",
      "single_word": false,
      "lstrip": false,
      "rstrip": false,
      "normalized": false,
      "special": true
    },
    {
      "id": 128027,
      "content": "<|fim_pad|>",
      "single_word": false,
      "lstrip": false,
      "rstrip": false,
      "normalized": false,
      "special": true
    },
    {
      "id": 128028,
      "content": "<|repo_name|>",
      "single_word": false,
      "lstrip": false,
      "rstrip": false,
      "normalized": false,
      "special": true
    },
    {
      "id": 128029,
      "content": "<|file_sep|>",
      "single_word": false,
      "lstrip": false,
      "rstrip": false,
      "normalized": false,
      "special": true
    },
    {
      "id": 128030,
      "content": "<tool_response>",
      "single_word": false,
      "lstrip": false,
      "rstrip": false,
      "normalized": false,
      "special": false
    },
    {
      "id": 128031,
      "content": "</tool_response>",
      "single_word": false,
      "lstrip": false,
      "rstrip": false,
      "normalized": false,
      "special": false
    },
    {
      "id": 128032,
      "content": "<think>",
      "single_word": false,
      "lstrip": false,
      "rstrip": false,
      "normalized": false,
      "special": false
    },
    {
      "id": 128033,
      "content": "</think>",
      "single_word": false,
      "lstrip": false,
      "rstrip": false,
      "normalized": false,
      "special": false
    },
    {
      "id": 128034,
      "content": "<|pad|>",
      "single_word": false,
      "lstrip": false,
      "rstrip": false,
      "normalized": false,
      "special": true
    },
    {
      "id": 128035,
      "content": "<|reserved_special_token_35|>",
      "single_word": false,
      "lstrip": false,
      "rstrip": false,
      "normalized": false,
      "special": true
    },
    {
      "id": 128036,
      "content": "<|reserved_special_token_36|>",
      "single_word": false,
      "lstrip": false,
      "rstrip": false,
      "normalized": false,
      "special": true
    },
    {
      "id": 128037,
      "content": "<|reserved_special_token_37|>",
      "single_word": false,
      "lstrip": false,
      "rstrip": false,
      "normalized": false,
      "special": true
    },
    {
      "id": 128038,
      "content": "<|reserved_special_token_38|>",
      "single_word": false,
      "lstrip": false,
      "rstrip": false,
      "normalized": false,
      "special": true
    },
    {
      "id": 128039,
      "content": "<|reserved_special_token_39|>",
      "single_word": false,
      "lstrip": false,
      "rstrip": false,
      "normalized": false,
      "special": true
    },
    {
      "id": 128040,
      "content": "<|reserved_special_token_40|>",
      "single_word": false,
      "lstrip": false,
      "rstrip": false,
      "normalized": false,
      "special": true
    },
    {
      "id": 128041,
      "content": "<|reserved_special_token_41|>",
      "single_word": false,
      "lstrip": false,
      "rstrip": false,
      "normalized": false,
      "special": true
    },
    {
      "id": 128042,
      "content": "<|reserved_special_token_42|>",
      "single_word": false,
      "lstrip": false,
      "rstrip": false,
      "normalized": false,
      "special": true
    },
    {
      "id": 128043,
      "content": "<|reserved_special_token_43|>",
      "single_word": false,
      "lstrip": false,
      "rstrip": false,
      "normalized": false,
      "special": true
    },
    {
      "id": 128044,
      "content": "<|reserved_special_token_44|>",
      "single_word": false,
      "lstrip": false,
      "rstrip": false,
      "normalized": false,
      "special": true
    },
    {
      "id": 128045,
      "content": "<|reserved_special_token_45|>",
      "single_word": false,
      "lstrip": false,
      "rstrip": false,
      "normalized": false,
      "special": true
    },
    {
      "id": 128046,
      "content": "<|reserved_special_token_46|>",
      "single_word": false,
      "lstrip": false,
      "rstrip": false,
      "normalized": false,
      "special": true
    },
    {
      "id": 128047,
      "content": "<|reserved_special_token_47|>",
      "single_word": false,
      "lstrip": false,
      "rstrip": false,
      "normalized": false,
      "special": true
    },
    {
      "id": 128048,
      "content": "<|reserved_special_token_48|>",
      "single_word": false,
      "lstrip": false,
      "rstrip": false,
      "normalized": false,
      "special": true
    },
    {
      "id": 128049,
      "content": "<|reserved_special_token_49|>",
      "single_word": false,
      "lstrip": false,
      "rstrip": false,
      "normalized": false,
      "special": true
    },
    {
      "id": 128050,
      "content": "<|reserved_special_token_50|>",
      "single_word": false,
      "lstrip": false,
      "rstrip": false,
      "normalized": false,
      "special": true
    },
    {
      "id": 128051,
      "content": "<|reserved_special_token_51|>",
      "single_word": false,
      "lstrip": false,
      "rstrip": false,
      "normalized": false,
      "special": true
    },
    {
      "id": 128052,
      "content": "<|reserved_special_token_52|>",
      "single_word": false,
      "lstrip": false,
      "rstrip": false,
      "normalized": false,
      "special": true
    },
    {
      "id": 128053,
      "content": "<|reserved_special_token_53|>",
      "single_word": false,
      "lstrip": false,
      "rstrip": false,
      "normalized": false,
      "special": true
    },
    {
      "id": 128054,
      "content": "<|reserved_special_token_54|>",
      "single_word": false,
      "lstrip": false,
      "rstrip": false,
      "normalized": false,
      "special": true
    },
    {
      "id": 128055,
      "content": "<|reserved_special_token_55|>",
      "single_word": false,
      "lstrip": false,
      "rstrip": false,
      "normalized": false,
      "special": true
    },
    {
      "id": 128056,
      "content": "<|reserved_special_token_56|>",
      "single_word": false,
      "lstrip": false,
      "rstrip": false,
      "normalized": false,
      "special": true
    },
    {
      "id": 128057,
      "content": "<|reserved_special_token_57|>",
      "single_word": false,
      "lstrip": false,
      "rstrip": false,
      "normalized": false,
      "special": true
    },
    {
      "id": 128058,
      "content": "<|reserved_special_token_58|>",
      "single_word": false,
      "lstrip": false,
      "rstrip": false,
      "normalized": false,
      "special": true
    },
    {
      "id": 128059,
      "content": "<|reserved_special_token_59|>",
      "single_word": false,
      "lstrip": false,
      "rstrip": false,
      "normalized": false,
      "special": true
    },
    {
      "id": 128060,
      "content": "<|reserved_special_token_60|>",
      "single_word": false,
      "lstrip": false,
      "rstrip": false,
      "normalized": false,
      "special": true
    },
    {
      "id": 128061,
      "content": "<|reserved_special_token_61|>",
      "single_word": false,
      "lstrip": false,
      "rstrip": false,
      "normalized": false,
      "special": true
    },
    {
      "id": 128062,
      "content": "<|reserved_special_token_62|>",
      "single_word": false,
      "lstrip": false,
      "rstrip": false,
      "normalized": false,
      "special": true
    },
    {
      "id": 128063,
      "content": "<|reserved_special_token_63|>",
      "single_word": false,
      "lstrip": false,
      "rstrip": false,
      "normalized": false,
      "special": true
    },
    {
      "id": 128064,
      "content": "<|reserved_special_token_64|>",
      "single_word": false,
      "lstrip": false,
      "rstrip": false,
      "normalized": false,
      "special": true
    },
    {
      "id": 128065,
      "content": "<|reserved_special_token_65|>",
      "single_word": false,
      "lstrip": false,
      "rstrip": false,
      "normalized": false,
      "special": true
    },
    {
      "id": 128066,
      "content": "<|reserved_special_token_66|>",
      "single_word": false,
      "lstrip": false,
      "rstrip": false,
      "normalized": false,
      "special": true
    },
    {
      "id": 128067,
      "content": "<|reserved_special_token_67|>",
      "single_word": false,
      "lstrip": false,
      "rstrip": false,
      "normalized": false,
      "special": true
    },
    {
      "id": 128068,
      "content": "<|reserved_special_token_68|>",
      "single_word": false,
      "lstrip": false,
      "rstrip": false,
      "normalized": false,
      "special": true
    },
    {
      "id": 128069,
      "content": "<|reserved_special_token_69|>",
      "single_word": false,
      "lstrip": false,
      "rstrip": false,
      "normalized": false,
      "special": true
    },
    {
      "id": 128070,
      "content": "<|reserved_special_token_70|>",
      "single_word": false,
      "lstrip": false,
      "rstrip": false,
      "normalized": false,
      "special": true
    },
    {
      "id": 128071,
      "content": "<|reserved_special_token_71|>",
      "single_word": false,
      "lstrip": false,
      "rstrip": false,
      "normalized": false,
      "special": true
    },
    {
      "id": 128072,
      "content": "<|reserved_special_token_72|>",
      "single_word": false,
      "lstrip": false,
      "rstrip": false,
      "normalized": false,
      "special": true
    },
    {
      "id": 128073,
      "content": "<|reserved_special_token_73|>",
      "single_word": false,
      "lstrip": false,
      "rstrip": false,
      "normalized": false,
      "special": true
    },
    {
      "id": 128074,
      "content": "<|reserved_special_token_74|>",
      "single_word": false,
      "lstrip": false,
      "rstrip": false,
      "normalized": false,
      "special": true
    },
    {
      "id": 128075,
      "content": "<|reserved_special_token_75|>",
      "single_word": false,
      "lstrip": false,
      "rstrip": false,
      "normalized": false,
      "special": true
    },
    {
      "id": 128076,
      "content": "<|reserved_special_token_76|>",
      "single_word": false,
      "lstrip": false,
      "rstrip": false,
      "normalized": false,
      "special": true
    },
    {
      "id": 128077,
      "content": "<|reserved_special_token_77|>",
      "single_word": false,
      "lstrip": false,
      "rstrip": false,
      "normalized": false,
      "special": true
    },
    {
      "id": 128078,
      "content": "<|reserved_special_token_78|>",
      "single_word": false,
      "lstrip": false,
      "rstrip": false,
      "normalized": false,
      "special": true
    },
    {
      "id": 128079,
      "content": "<|reserved_special_token_79|>",
      "single_word": false,
      "lstrip": false,
      "rstrip": false,
      "normalized": false,
      "special": true
    },
    {
      "id": 128080,
      "content": "<|reserved_special_token_80|>",
      "single_word": false,
      "lstrip": false,
      "rstrip": false,
      "normalized": false,
      "special": true
    },
    {
      "id": 128081,
      "content": "<|reserved_special_token_81|>",
      "single_word": false,
      "lstrip": false,
      "rstrip": false,
      "normalized": false,
      "special": true
    },
    {
      "id": 128082,
      "content": "<|reserved_special_token_82|>",
      "single_word": false,
      "lstrip": false,
      "rstrip": false,
      "normalized": false,
      "special": true
    },
    {
      "id": 128083,
      "content": "<|reserved_special_token_83|>",
      "single_word": false,
      "lstrip": false,
      "rstrip": false,
      "normalized": false,
      "special": true
    },
    {
      "id": 128084,
      "content": "<|reserved_special_token_84|>",
      "single_word": false,
      "lstrip": false,
      "rstrip": false,
      "normalized": false,
      "special": true
    },
    {
      "id": 128085,
      "content": "<|reserved_special_token_85|>",
      "single_word": false,
      "lstrip": false,
      "rstrip": false,
      "normalized": false,
      "special": true
    },
    {
      "id": 128086,
      "content": "<|reserved_special_token_86|>",
      "single_word": false,
      "lstrip": false,
      "rstrip": false,
      "normalized": false,
      "special": true
    },
    {
      "id": 128087,
      "content": "<|reserved_special_token_87|>",
      "single_word": false,
      "lstrip": false,
      "rstrip": false,
      "normalized": false,
      "special": true
    },
    {
      "id": 128088,
      "content": "<|reserved_special_token_88|>",
      "single_word": false,
      "lstrip": false,
      "rstrip": false,
      "normalized": false,
      "special": true
    },
    {
      "id": 128089,
      "content": "<|reserved_special_token_89|>",
      "single_word": false,
      "lstrip": false,
      "rstrip": false,
      "normalized": false,
      "special": true
    },
    {
      "id": 128090,
      "content": "<|reserved_special_token_90|>",
      "single_word": false,
      "lstrip": false,
      "rstrip": false,
      "normalized": false,
      "special": true
    },
    {
      "id": 128091,
      "content": "<|reserved_special_token_91|>",
      "single_word": false,
      "lstrip": false,
      "rstrip": false,
      "normalized": false,
      "special": true
    },
    {
      "id": 128092,
      "content": "<|reserved_special_token_92|>",
      "single_word": false,
      "lstrip": false,
      "rstrip": false,
      "normalized": false,
      "special": true
    },
    {
      "id": 128093,
      "content": "<|reserved_special_token_93|>",
      "single_word": false,
      "lstrip": false,
      "rstrip": false,
      "normalized": false,
      "special": true
    },
    {
      "id": 128094,
      "content": "<|reserved_special_token_94|>",
      "single_word": false,
      "lstrip": false,
      "rstrip": false,
      "normalized": false,
      "special": true
    },
    {
      "id": 128095,
      "content": "<|reserved_special_token_95|>",
      "single_word": false,
      "lstrip": false,
      "rstrip": false,
      "normalized": false,
      "special": true
    },
    {
      "id": 128096,
      "content": "<|reserved_special_token_96|>",
      "single_word": false,
      "lstrip": false,
      "rstrip": false,
      "normalized": false,
      "special": true
    },
    {
      "id": 128097,
      "content": "<|reserved_special_token_97|>",
      "single_word": false,
      "lstrip": false,
      "rstrip": false,
      "normalized": false,
      "special": true
    },
    {
      "id": 128098,
      "content": "<|reserved_special_token_98|>",
      "single_word": false,
      "lstrip": false,
      "rstrip": false,
      "normalized": false,
      "special": true
    },
    {
      "id": 128099,
      "content": "<|reserved_special_token_99|>",
      "single_word": false,
      "lstrip": false,
      "rstrip": false,
      "normalized": false,
      "special": true
    },
    {
      "id": 128100,
      "content": "<|reserved_special_token_100|>",
      "single_word": false,
      "lstrip": false,
      "rstrip": false,
      "normalized": false,
      "special": true
    },
    {
      "id": 128101,
      "content": "<|reserved_special_token_101|>",
      "single_word": false,
      "lstrip": false,
      "rstrip": false,
      "normalized": false,
      "special": true
    },
    {
      "id": 128102,
      "content": "<|reserved_special_token_102|>",
      "single_word": false,
      "lstrip": false,
      "rstrip": false,
      "normalized": false,
      "special": true
    },
    {
      "id": 128103,
      "content": "<|reserved_special_token_103|>",
      "single_word": false,
      "lstrip": false,
      "rstrip": false,
      "normalized": false,
      "special": true
    },
    {
      "id": 128104,
      "content": "<|reserved_special_token_104|>",
      "single_word": false,
      "lstrip": false,
      "rstrip": false,
      "normalized": false,
      "special": true
    },
    {
      "id": 128105,
      "content": "<|reserved_special_token_105|>",
      "single_word": false,
      "lstrip": false,
      "rstrip": false,
      "normalized": false,
      "special": true
    },
    {
      "id": 128106,
      "content": "<|reserved_special_token_106|>",
      "single_word": false,
      "lstrip": false,
      "rstrip": false,
      "normalized": false,
      "special": true
    },
    {
      "id": 128107,
      "content": "<|reserved_special_token_107|>",
      "single_word": false,
      "lstrip": false,
      "rstrip": false,
      "normalized": false,
      "special": true
    },
    {
      "id": 128108,
      "content": "<|reserved_special_token_108|>",
      "single_word": false,
      "lstrip": false,
      "rstrip": false,
      "normalized": false,
      "special": true
    },
    {
      "id": 128109,
      "content": "<|reserved_special_token_109|>",
      "single_word": false,
      "lstrip": false,
      "rstrip": false,
      "normalized": false,
      "special": true
    },
    {
      "id": 128110,
      "content": "<|reserved_special_token_110|>",
      "single_word": false,
      "lstrip": false,
      "rstrip": false,
      "normalized": false,
      "special": true
    },
    {
      "id": 128111,
      "content": "<|reserved_special_token_111|>",
      "single_word": false,
      "lstrip": false,
      "rstrip": false,
      "normalized": false,
      "special": true
    },
    {
      "id": 128112,
      "content": "<|reserved_special_token_112|>",
      "single_word": false,
      "lstrip": false,
      "rstrip": false,
      "normalized": false,
      "special": true
    },
    {
      "id": 128113,
      "content": "<|reserved_special_token_113|>",
      "single_word": false,
      "lstrip": false,
      "rstrip": false,
      "normalized": false,
      "special": true
    },
    {
      "id": 128114,
      "content": "<|reserved_special_token_114|>",
      "single_word": false,
      "lstrip": false,
      "rstrip": false,
      "normalized": false,
      "special": true
    },
    {
      "id": 128115,
      "content": "<|reserved_special_token_115|>",
      "single_word": false,
      "lstrip": false,
      "rstrip": false,
      "normalized": false,
      "special": true
    },
    {
      "id": 128116,
      "content": "<|reserved_special_token_116|>",
      "single_word": false,
      "lstrip": false,
      "rstrip": false,
      "normalized": false,
      "special": true
    },
    {
      "id": 128117,
      "content": "<|reserved_special_token_117|>",
      "single_word": false,
      "lstrip": false,
      "rstrip": false,
      "normalized": false,
      "special": true
    },
    {
      "id": 128118,
      "content": "<|reserved_special_token_118|>",
      "single_word": false,
      "lstrip": false,
      "rstrip": false,
      "normalized": false,
      "special": true
    },
    {
      "id": 128119,
      "content": "<|reserved_special_token_119|>",
      "single_word": false,
      "lstrip": false,
      "rstrip": false,
      "normalized": false,
      "special": true
    },
    {
      "id": 128120,
      "content": "<|reserved_special_token_120|>",
      "single_word": false,
      "lstrip": false,
      "rstrip": false,
      "normalized": false,
      "special": true
    },
    {
      "id": 128121,
      "content": "<|reserved_special_token_121|>",
      "single_word": false,
      "lstrip": false,
      "rstrip": false,
      "normalized": false,
      "special": true
    },
    {
      "id": 128122,
      "content": "<|reserved_special_token_122|>",
      "single_word": false,
      "lstrip": false,
      "rstrip": false,
      "normalized": false,
      "special": true
    },
    {
      "id": 128123,
      "content": "<|reserved_special_token_123|>",
      "single_word": false,
      "lstrip": false,
      "rstrip": false,
      "normalized": false,
      "special": true
    },
    {
      "id": 128124,
      "content": "<|reserved_special_token_124|>",
      "single_word": false,
      "lstrip": false,
      "rstrip": false,
      "normalized": false,
      "special": true
    },
    {
      "id": 128125,
      "content": "<|reserved_special_token_125|>",
      "single_word": false,
      "lstrip": false,
      "rstrip": false,
      "normalized": false,
      "special": true
    },
    {
      "id": 128126,
      "content": "<|reserved_special_token_126|>",
      "single_word": false,
      "lstrip": false,
      "rstrip": false,
      "normalized": false,
      "special": true
    },
    {
      "id": 128127,
      "content": "<|reserved_special_token_127|>",
      "single_word": false,
      "lstrip": false,
      "rstrip": false,
      "normalized": false,
      "special": true
    },
    {
      "id": 128128,
      "content": "<|reserved_special_token_128|>",
      "single_word": false,
      "lstrip": false,
      "rstrip": false,
      "normalized": false,
      "special": true
    },
    {
      "id": 128129,
      "content": "<|reserved_special_token_129|>",
      "single_word": false,
      "lstrip": false,
      "rstrip": false,
      "normalized": false,
      "special": true
    },
    {
      "id": 128130,
      "content": "<|reserved_special_token_130|>",
      "single_word": false,
      "lstrip": false,
      "rstrip": false,
      "normalized": false,
      "special": true
    },
    {
      "id": 128131,
      "content": "<|reserved_special_token_131|>",
      "single_word": false,
      "lstrip": false,
      "rstrip": false,
      "normalized": false,
      "special": true
    },
    {
      "id": 128132,
      "content": "<|reserved_special_token_132|>",
      "single_word": false,
      "lstrip": false,
      "rstrip": false,
      "normalized": false,
      "special": true
    },
    {
      "id": 128133,
      "content": "<|reserved_special_token_133|>",
      "single_word": false,
      "lstrip": false,
      "rstrip": false,
      "normalized": false,
      "special": true
    },
    {
      "id": 128134,
      "content": "<|reserved_special_token_134|>",
      "single_word": false,
      "lstrip": false,
      "rstrip": false,
      "normalized": false,
      "special": true
    },
    {
      "id": 128135,
      "content": "<|reserved_special_token_135|>",
      "single_word": false,
      "lstrip": false,
      "rstrip": false,
      "normalized": false,
      "special": true
    },
    {
      "id": 128136,
      "content": "<|reserved_special_token_136|>",
      "single_word": false,
      "lstrip": false,
      "rstrip": false,
      "normalized": false,
      "special": true
    },
    {
      "id": 128137,
      "content": "<|reserved_special_token_137|>",
      "single_word": false,
      "lstrip": false,
      "rstrip": false,
      "normalized": false,
      "special": true
    },
    {
      "id": 128138,
      "content": "<|reserved_special_token_138|>",
      "single_word": false,
      "lstrip": false,
      "rstrip": false,
      "normalized": false,
      "special": true
    },
    {
      "id": 128139,
      "content": "<|reserved_special_token_139|>",
      "single_word": false,
      "lstrip": false,
      "rstrip": false,
      "normalized": false,
      "special": true
    },
    {
      "id": 128140,
      "content": "<|reserved_special_token_140|>",
      "single_word": false,
      "lstrip": false,
      "rstrip": false,
      "normalized": false,
      "special": true
    },
    {
      "id": 128141,
      "content": "<|reserved_special_token_141|>",
      "single_word": false,
      "lstrip": false,
      "rstrip": false,
      "normalized": false,
      "special": true
    },
    {
      "id": 128142,
      "content": "<|reserved_special_token_142|>",
      "single_word": false,
      "lstrip": false,
      "rstrip": false,
      "normalized": false,
      "special": true
    },
    {
      "id": 128143,
      "content": "<|reserved_special_token_143|>",
      "single_word": false,
      "lstrip": false,
      "rstrip": false,
      "normalized": false,
      "special": true
    },
    {
      "id": 128144,
      "content": "<|reserved_special_token_144|>",
      "single_word": false,
      "lstrip": false,
      "rstrip": false,
      "normalized": false,
      "special": true
    },
    {
      "id": 128145,
      "content": "<|reserved_special_token_145|>",
      "single_word": false,
      "lstrip": false,
      "rstrip": false,
      "normalized": false,
      "special": true
    },
    {
      "id": 128146,
      "content": "<|reserved_special_token_146|>",
      "single_word": false,
      "lstrip": false,
      "rstrip": false,
      "normalized": false,
      "special": true
    },
    {
      "id": 128147,
      "content": "<|reserved_special_token_147|>",
      "single_word": false,
      "lstrip": false,
      "rstrip": false,
      "normalized": false,
      "special": true
    },
    {
      "id": 128148,
      "content": "<|reserved_special_token_148|>",
      "single_word": false,
      "lstrip": false,
      "rstrip": false,
      "normalized": false,
      "special": true
    },
    {
      "id": 128149,
      "content": "<|reserved_special_token_149|>",
      "single_word": false,
      "lstrip": false,
      "rstrip": false,
      "normalized": false,
      "special": true
    },
    {
      "id": 128150,
      "content": "<|reserved_special_token_150|>",
      "single_word": false,
      "lstrip": false,
      "rstrip": false,
      "normalized": false,
      "special": true
    },
    {
      "id": 128151,
      "content": "<|reserved_special_token_151|>",
      "single_word": false,
      "lstrip": false,
      "rstrip": false,
      "normalized": false,
      "special": true
    },
    {
      "id": 128152,
      "content": "<|reserved_special_token_152|>",
      "single_word": false,
      "lstrip": false,
      "rstrip": false,
      "normalized": false,
      "special": true
    },
    {
      "id": 128153,
      "content": "<|reserved_special_token_153|>",
      "single_word": false,
      "lstrip": false,
      "rstrip": false,
      "normalized": false,
      "special": true
    },
    {
      "id": 128154,
      "content": "<|reserved_special_token_154|>",
      "single_word": false,
      "lstrip": false,
      "rstrip": false,
      "normalized": false,
      "special": true
    },
    {
      "id": 128155,
      "content": "<|reserved_special_token_155|>",
      "single_word": false,
      "lstrip": false,
      "rstrip": false,
      "normalized": false,
      "special": true
    },
    {
      "id": 128156,
      "content": "<|reserved_special_token_156|>",
      "single_word": false,
      "lstrip": false,
      "rstrip": false,
      "normalized": false,
      "special": true
    },
    {
      "id": 128157,
      "content": "<|reserved_special_token_157|>",
      "single_word": false,
      "lstrip": false,
      "rstrip": false,
      "normalized": false,
      "special": true
    },
    {
      "id": 128158,
      "content": "<|reserved_special_token_158|>",
      "single_word": false,
      "lstrip": false,
      "rstrip": false,
      "normalized": false,
      "special": true
    },
    {
      "id": 128159,
      "content": "<|reserved_special_token_159|>",
      "single_word": false,
      "lstrip": false,
      "rstrip": false,
      "normalized": false,
      "special": true
    },
    {
      "id": 128160,
      "content": "<|reserved_special_token_160|>",
      "single_word": false,
      "lstrip": false,
      "rstrip": false,
      "normalized": false,
      "special": true
    },
    {
      "id": 128161,
      "content": "<|reserved_special_token_161|>",
      "single_word": false,
      "lstrip": false,
      "rstrip": false,
      "normalized": false,
      "special": true
    },
    {
      "id": 128162,
      "content": "<|reserved_special_token_162|>",
      "single_word": false,
      "lstrip": false,
      "rstrip": false,
      "normalized": false,
      "special": true
    },
    {
      "id": 128163,
      "content": "<|reserved_special_token_163|>",
      "single_word": false,
      "lstrip": false,
      "rstrip": false,
      "normalized": false,
      "special": true
    },
    {
      "id": 128164,
      "content": "<|reserved_special_token_164|>",
      "single_word": false,
      "lstrip": false,
      "rstrip": false,
      "normalized": false,
      "special": true
    },
    {
      "id": 128165,
      "content": "<|reserved_special_token_165|>",
      "single_word": false,
      "lstrip": false,
      "rstrip": false,
      "normalized": false,
      "special": true
    },
    {
      "id": 128166,
      "content": "<|reserved_special_token_166|>",
      "single_word": false,
      "lstrip": false,
      "rstrip": false,
      "normalized": false,
      "special": true
    },
    {
      "id": 128167,
      "content": "<|reserved_special_token_167|>",
      "single_word": false,
      "lstrip": false,
      "rstrip": false,
      "normalized": false,
      "special": true
    },
    {
      "id": 128168,
      "content": "<|reserved_special_token_168|>",
      "single_word": false,
      "lstrip": false,
      "rstrip": false,
      "normalized": false,
      "special": true
    },
    {
      "id": 128169,
      "content": "<|reserved_special_token_169|>",
      "single_word": false,
      "lstrip": false,
      "rstrip": false,
      "normalized": false,
      "special": true
    },
    {
      "id": 128170,
      "content": "<|reserved_special_token_170|>",
      "single_word": false,
      "lstrip": false,
      "rstrip": false,
      "normalized": false,
      "special": true
    },
    {
      "id": 128171,
      "content": "<|reserved_special_token_171|>",
      "single_word": false,
      "lstrip": false,
      "rstrip": false,
      "normalized": false,
      "special": true
    },
    {
      "id": 128172,
      "content": "<|reserved_special_token_172|>",
      "single_word": false,
      "lstrip": false,
      "rstrip": false,
      "normalized": false,
      "special": true
    },
    {
      "id": 128173,
      "content": "<|reserved_special_token_173|>",
      "single_word": false,
      "lstrip": false,
      "rstrip": false,
      "normalized": false,
      "special": true
    },
    {
      "id": 128174,
      "content": "<|reserved_special_token_174|>",
      "single_word": false,
      "lstrip": false,
      "rstrip": false,
      "normalized": false,
      "special": true
    },
    {
      "id": 128175,
      "content": "<|reserved_special_token_175|>",
      "single_word": false,
      "lstrip": false,
      "rstrip": false,
      "normalized": false,
      "special": true
    },
    {
      "id": 128176,
      "content": "<|reserved_special_token_176|>",
      "single_word": false,
      "lstrip": false,
      "rstrip": false,
      "normalized": false,
      "special": true
    },
    {
      "id": 128177,
      "content": "<|reserved_special_token_177|>",
      "single_word": false,
      "lstrip": false,
      "rstrip": false,
      "normalized": false,
      "special": true
    },
    {
      "id": 128178,
      "content": "<|reserved_special_token_178|>",
      "single_word": false,
      "lstrip": false,
      "rstrip": false,
      "normalized": false,
      "special": true
    },
    {
      "id": 128179,
      "content": "<|reserved_special_token_179|>",
      "single_word": false,
      "lstrip": false,
      "rstrip": false,
      "normalized": false,
      "special": true
    },
    {
      "id": 128180,
      "content": "<|reserved_special_token_180|>",
      "single_word": false,
      "lstrip": false,
      "rstrip": false,
      "normalized": false,
      "special": true
    },
    {
      "id": 128181,
      "content": "<|reserved_special_token_181|>",
      "single_word": false,
      "lstrip": false,
      "rstrip": false,
      "normalized": false,
      "special": true
    },
    {
      "id": 128182,
      "content": "<|reserved_special_token_182|>",
      "single_word": false,
      "lstrip": false,
      "rstrip": false,
      "normalized": false,
      "special": true
    },
    {
      "id": 128183,
      "content": "<|reserved_special_token_183|>",
      "single_word": false,
      "lstrip": false,
      "rstrip": false,
      "normalized": false,
      "special": true
    },
    {
      "id": 128184,
      "content": "<|reserved_special_token_184|>",
      "single_word": false,
      "lstrip": false,
      "rstrip": false,
      "normalized": false,
      "special": true
    },
    {
      "id": 128185,
      "content": "<|reserved_special_token_185|>",
      "single_word": false,
      "lstrip": false,
      "rstrip": false,
      "normalized": false,
      "special": true
    },
    {
      "id": 128186,
      "content": "<|reserved_special_token_186|>",
      "single_word": false,
      "lstrip": false,
      "rstrip": false,
      "normalized": false,
      "special": true
    },
    {
      "id": 128187,
      "content": "<|reserved_special_token_187|>",
      "single_word": false,
      "lstrip": false,
      "rstrip": false,
      "normalized": false,
      "special": true
    },
    {
      "id": 128188,
      "content": "<|reserved_special_token_188|>",
      "single_word": false,
      "lstrip": false,
      "rstrip": false,
      "normalized": false,
      "special": true
    },
    {
      "id": 128189,
      "content": "<|reserved_special_token_189|>",
      "single_word": false,
      "lstrip": false,
      "rstrip": false,
      "normalized": false,
      "special": true
    },
    {
      "id": 128190,
      "content": "<|reserved_special_token_190|>",
      "single_word": false,
      "lstrip": false,
      "rstrip": false,
      "normalized": false,
      "special": true
    },
    {
      "id": 128191,
      "content": "<|reserved_special_token_191|>",
      "single_word": false,
      "lstrip": false,
      "rstrip": false,
      "normalized": false,
      "special": true
    },
    {
      "id": 128192,
      "content": "<|reserved_special_token_192|>",
      "single_word": false,
      "lstrip": false,
      "rstrip": false,
      "normalized": false,
      "special": true
    },
    {
      "id": 128193,
      "content": "<|reserved_special_token_193|>",
      "single_word": false,
      "lstrip": false,
      "rstrip": false,
      "normalized": false,
      "special": true
    },
    {
      "id": 128194,
      "content": "<|reserved_special_token_194|>",
      "single_word": false,
      "lstrip": false,
      "rstrip": false,
      "normalized": false,
      "special": true
    },
    {
      "id": 128195,
      "content": "<|reserved_special_token_195|>",
      "single_word": false,
      "lstrip": false,
      "rstrip": false,
      "normalized": false,
      "special": true
    },
    {
      "id": 128196,
      "content": "<|reserved_special_token_196|>",
      "single_word": false,
      "lstrip": false,
      "rstrip": false,
      "normalized": false,
      "special": true
    },
    {
      "id": 128197,
      "content": "<|reserved_special_token_197|>",
      "single_word": false,
      "lstrip": false,
      "rstrip": false,
      "normalized": false,
      "special": true
    },
    {
      "id": 128198,
      "content": "<|reserved_special_token_198|>",
      "single_word": false,
      "lstrip": false,
      "rstrip": false,
      "normalized": false,
      "special": true
    },
    {
      "id": 128199,
      "content": "<|reserved_special_token_199|>",
      "single_word": false,
      "lstrip": false,
      "rstrip": false,
      "normalized": false,
      "special": true
    },
    {
      "id": 128200,
      "content": "<|reserved_special_token_200|>",
      "single_word": false,
      "lstrip": false,
      "rstrip": false,
      "normalized": false,
      "special": true
    },
    {
      "id": 128201,
      "content": "<|reserved_special_token_201|>",
      "single_word": false,
      "lstrip": false,
      "rstrip": false,
      "normalized": false,
      "special": true
    },
    {
      "id": 128202,
      "content": "<|reserved_special_token_202|>",
      "single_word": false,
      "lstrip": false,
      "rstrip": false,
      "normalized": false,
      "special": true
    },
    {
      "id": 128203,
      "content": "<|reserved_special_token_203|>",
      "single_word": false,
      "lstrip": false,
      "rstrip": false,
      "normalized": false,
      "special": true
    },
    {
      "id": 128204,
      "content": "<|reserved_special_token_204|>",
      "single_word": false,
      "lstrip": false,
      "rstrip": false,
      "normalized": false,
      "special": true
    },
    {
      "id": 128205,
      "content": "<|reserved_special_token_205|>",
      "single_word": false,
      "lstrip": false,
      "rstrip": false,
      "normalized": false,
      "special": true
    },
    {
      "id": 128206,
      "content": "<|reserved_special_token_206|>",
      "single_word": false,
      "lstrip": false,
      "rstrip": false,
      "normalized": false,
      "special": true
    },
    {
      "id": 128207,
      "content": "<|reserved_special_token_207|>",
      "single_word": false,
      "lstrip": false,
      "rstrip": false,
      "normalized": false,
      "special": true
    },
    {
      "id": 128208,
      "content": "<|reserved_special_token_208|>",
      "single_word": false,
      "lstrip": false,
      "rstrip": false,
      "normalized": false,
      "special": true
    },
    {
      "id": 128209,
      "content": "<|reserved_special_token_209|>",
      "single_word": false,
      "lstrip": false,
      "rstrip": false,
      "normalized": false,
      "special": true
    },
    {
      "id": 128210,
      "content": "<|reserved_special_token_210|>",
      "single_word": false,
      "lstrip": false,
      "rstrip": false,
      "normalized": false,
      "special": true
    },
    {
      "id": 128211,
      "content": "<|reserved_special_token_211|>",
      "single_word": false,
      "lstrip": false,
      "rstrip": false,
      "normalized": false,
      "special": true
    },
    {
      "id": 128212,
      "content": "<|reserved_special_token_212|>",
      "single_word": false,
      "lstrip": false,
      "rstrip": false,
      "normalized": false,
      "special": true
    },
    {
      "id": 128213,
      "content": "<|reserved_special_token_213|>",
      "single_word": false,
      "lstrip": false,
      "rstrip": false,
      "normalized": false,
      "special": true
    },
    {
      "id": 128214,
      "content": "<|reserved_special_token_214|>",
      "single_word": false,
      "lstrip": false,
      "rstrip": false,
      "normalized": false,
      "special": true
    },
    {
      "id": 128215,
      "content": "<|reserved_special_token_215|>",
      "single_word": false,
      "lstrip": false,
      "rstrip": false,
      "normalized": false,
      "special": true
    },
    {
      "id": 128216,
      "content": "<|reserved_special_token_216|>",
      "single_word": false,
      "lstrip": false,
      "rstrip": false,
      "normalized": false,
      "special": true
    },
    {
      "id": 128217,
      "content": "<|reserved_special_token_217|>",
      "single_word": false,
      "lstrip": false,
      "rstrip": false,
      "normalized": false,
      "special": true
    },
    {
      "id": 128218,
      "content": "<|reserved_special_token_218|>",
      "single_word": false,
      "lstrip": false,
      "rstrip": false,
      "normalized": false,
      "special": true
    },
    {
      "id": 128219,
      "content": "<|reserved_special_token_219|>",
      "single_word": false,
      "lstrip": false,
      "rstrip": false,
      "normalized": false,
      "special": true
    },
    {
      "id": 128220,
      "content": "<|reserved_special_token_220|>",
      "single_word": false,
      "lstrip": false,
      "rstrip": false,
      "normalized": false,
      "special": true
    },
    {
      "id": 128221,
      "content": "<|reserved_special_token_221|>",
      "single_word": false,
      "lstrip": false,
      "rstrip": false,
      "normalized": false,
      "special": true
    },
    {
      "id": 128222,
      "content": "<|reserved_special_token_222|>",
      "single_word": false,
      "lstrip": false,
      "rstrip": false,
      "normalized": false,
      "special": true
    },
    {
      "id": 128223,
      "content": "<|reserved_special_token_223|>",
      "single_word": false,
      "lstrip": false,
      "rstrip": false,
      "normalized": false,
      "special": true
    },
    {
      "id": 128224,
      "content": "<|reserved_special_token_224|>",
      "single_word": false,
      "lstrip": false,
      "rstrip": false,
      "normalized": false,
      "special": true
    },
    {
      "id": 128225,
      "content": "<|reserved_special_token_225|>",
      "single_word": false,
      "lstrip": false,
      "rstrip": false,
      "normalized": false,
      "special": true
    },
    {
      "id": 128226,
      "content": "<|reserved_special_token_226|>",
      "single_word": false,
      "lstrip": false,
      "rstrip": false,
      "normalized": false,
      "special": true
    },
    {
      "id": 128227,
      "content": "<|reserved_special_token_227|>",
      "single_word": false,
      "lstrip": false,
      "rstrip": false,
      "normalized": false,
      "special": true
    },
    {
      "id": 128228,
      "content": "<|reserved_special_token_228|>",
      "single_word": false,
      "lstrip": false,
      "rstrip": false,
      "normalized": false,
      "special": true
    },
    {
      "id": 128229,
      "content": "<|reserved_special_token_229|>",
      "single_word": false,
      "lstrip": false,
      "rstrip": false,
      "normalized": false,
      "special": true
    },
    {
      "id": 128230,
      "content": "<|reserved_special_token_230|>",
      "single_word": false,
      "lstrip": false,
      "rstrip": false,
      "normalized": false,
      "special": true
    },
    {
      "id": 128231,
      "content": "<|reserved_special_token_231|>",
      "single_word": false,
      "lstrip": false,
      "rstrip": false,
      "normalized": false,
      "special": true
    },
    {
      "id": 128232,
      "content": "<|reserved_special_token_232|>",
      "single_word": false,
      "lstrip": false,
      "rstrip": false,
      "normalized": false,
      "special": true
    },
    {
      "id": 128233,
      "content": "<|reserved_special_token_233|>",
      "single_word": false,
      "lstrip": false,
      "rstrip": false,
      "normalized": false,
      "special": true
    },
    {
      "id": 128234,
      "content": "<|reserved_special_token_234|>",
      "single_word": false,
      "lstrip": false,
      "rstrip": false,
      "normalized": false,
      "special": true
    },
    {
      "id": 128235,
      "content": "<|reserved_special_token_235|>",
      "single_word": false,
      "lstrip": false,
      "rstrip": false,
      "normalized": false,
      "special": true
    },
    {
      "id": 128236,
      "content": "<|reserved_special_token_236|>",
      "single_word": false,
      "lstrip": false,
      "rstrip": false,
      "normalized": false,
      "special": true
    },
    {
      "id": 128237,
      "content": "<|reserved_special_token_237|>",
      "single_word": false,
      "lstrip": false,
      "rstrip": false,
      "normalized": false,
      "special": true
    },
    {
      "id": 128238,
      "content": "<|reserved_special_token_238|>",
      "single_word": false,
      "lstrip": false,
      "rstrip": false,
      "normalized": false,
      "special": true
    },
    {
      "id": 128239,
      "content": "<|reserved_special_token_239|>",
      "single_word": false,
      "lstrip": false,
      "rstrip": false,
      "normalized": false,
      "special": true
    },
    {
      "id": 128240,
      "content": "<|reserved_special_token_240|>",
      "single_word": false,
      "lstrip": false,
      "rstrip": false,
      "normalized": false,
      "special": true
    },
    {
      "id": 128241,
      "content": "<|reserved_special_token_241|>",
      "single_word": false,
      "lstrip": false,
      "rstrip": false,
      "normalized": false,
      "special": true
    },
    {
      "id": 128242,
      "content": "<|reserved_special_token_242|>",
      "single_word": false,
      "lstrip": false,
      "rstrip": false,
      "normalized": false,
      "special": true
    },
    {
      "id": 128243,
      "content": "<|reserved_special_token_243|>",
      "single_word": false,
      "lstrip": false,
      "rstrip": false,
      "normalized": false,
      "special": true
    },
    {
      "id": 128244,
      "content": "<|reserved_special_token_244|>",
      "single_word": false,
      "lstrip": false,
      "rstrip": false,
      "normalized": false,
      "special": true
    },
    {
      "id": 128245,
      "content": "<|reserved_special_token_245|>",
      "single_word": false,
      "lstrip": false,
      "rstrip": false,
      "normalized": false,
      "special": true
    },
    {
      "id": 128246,
      "content": "<|reserved_special_token_246|>",
      "single_word": false,
      "lstrip": false,
      "rstrip": false,
      "normalized": false,
      "special": true
    },
    {
      "id": 128247,
      "content": "<|reserved_special_token_247|>",
      "single_word": false,
      "lstrip": false,
      "rstrip": false,
      "normalized": false,
      "special": true
    },
    {
      "id": 128248,
      "content": "<|reserved_special_token_248|>",
      "single_word": false,
      "lstrip": false,
      "rstrip": false,
      "normalized": false,
      "special": true
    },
    {
      "id": 128249,
      "content": "<|reserved_special_token_249|>",
      "single_word": false,
      "lstrip": false,
      "rstrip": false,
      "normalized": false,
      "special": true
    },
    {
      "id": 128250,
      "content": "<|reserved_special_token_250|>",
      "single_word": false,
      "lstrip": false,
      "rstrip": false,
      "normalized": false,
      "special": true
    },
    {
      "id": 128251,
      "content": "<|reserved_special_token_251|>",
      "single_word": false,
      "lstrip": false,
      "rstrip": false,
      "normalized": false,
      "special": true
    },
    {
      "id": 128252,
      "content": "<|reserved_special_token_252|>",
      "single_word": false,
      "lstrip": false,
      "rstrip": false,
      "normalized": false,
      "special": true
    },
    {
      "id": 128253,
      "content": "<|reserved_special_token_253|>",
      "single_word": false,
      "lstrip": false,
      "rstrip": false,
      "normalized": false,
      "special": true
    },
    {
      "id": 128254,
      "content": "<|reserved_special_token_254|>",
      "single_word": false,
      "lstrip": false,
      "rstrip": false,
      "normalized": false,
      "special": true
    },
    {
      "id": 128255,
      "content": "<|reserved_special_token_255|>",
      "single_word": false,
      "lstrip": false,
      "rstrip": false,
      "normalized": false,
      "special": true
    }
  ],
  "normalizer": null,
  "pre_tokenizer": {
    "type": "Sequence",
    "pretokenizers": [
      {
        "type": "Split",
        "pattern": {
          "Regex": "[^\\r\\n\\p{L}\\p{N}]?[\\p{Lu}\\p{Lt}\\p{Lm}\\p{Lo}\\p{M}]*[\\p{Ll}\\p{Lm}\\p{Lo}\\p{M}]+(?i:'s|'t|'re|'ve|'m|'ll|'d)?|[^\\r\\n\\p{L}\\p{N}]?[\\p{Lu}\\p{Lt}\\p{Lm}\\p{Lo}\\p{M}]+[\\p{Ll}\\p{Lm}\\p{Lo}\\p{M}]*(?i:'s|'t|'re|'ve|'m|'ll|'d)?|\\p{N}{1,3}| ?[^\\s\\p{L}\\p{N}]+[\\r\\n/]*|\\s*[\\r\\n]+|\\s+(?!\\S)|\\s+"
        },
        "behavior": "Isolated",
        "invert": false
      },
      {
        "type": "ByteLevel",
        "add_prefix_space": false,
        "trim_offsets": true,
        "use_regex": false
      }
    ]
  },
  "post_processor": {
    "type": "Sequence",
    "processors": [
      {
        "type": "ByteLevel",
        "add_prefix_space": true,
        "trim_offsets": false,
        "use_regex": true
      },
      {
        "type": "TemplateProcessing",
        "single": [
          {
            "SpecialToken": {
              "id": "<|begin_of_text|>",
              "type_id": 0
            }
          },
          {
            "Sequence": {
              "id": "A",
              "type_id": 0
            }
          }
        ],
        "pair": [
          {
            "SpecialToken": {
              "id": "<|begin_of_text|>",
              "type_id": 0
            }
          },
          {
            "Sequence": {
              "id": "A",
              "type_id": 0
            }
          },
          {
            "SpecialToken": {
              "id": "<|begin_of_text|>",
              "type_id": 1
            }
          },
          {
            "Sequence": {
              "id": "B",
              "type_id": 1
            }
          }
        ],
        "special_tokens": {
          "<|begin_of_text|>": {
            "id": "<|begin_of_text|>",
            "ids": [
              128000
            ],
            "tokens": [
              "<|begin_of_text|>"
            ]
          },
          "<|end_of_text|>": {
            "id": "<|end_of_text|>",
            "ids": [
              128001
            ],
            "tokens": [
              "<|end_of_text|>"
            ]
          },
          "<|im_end|>": {
            "id": "<|im_end|>",
            "ids": [
              128010
            ],
            "tokens": [
              "<|im_end|>"
            ]
          }
        }
      }
    ]
  },
  "decoder": {
    "type": "ByteLevel",
    "add_prefix_space": true,
    "trim_offsets": true,
    "use_regex": true
  },
  "model": {
    "type": "BPE",
    "dropout": null,
    "unk_token": null,
    "continuing_subword_prefix": null,
    "end_of_word_suffix": null,
    "fuse_unk": false,
    "byte_fallback": false,
    "ignore_merges": true,
    "vocab": {
      "!": 0,
      "\"": 1,
      "#": 2,
      "$": 3,
      "%": 4,
      "&": 5,
      "'": 6,
      "(": 7,
      ")": 8,
      "*": 9,
      "+": 10,
      ",": 11,
      "-": 12,
      ".": 13,
      "/": 14,
      "0": 15,
      "1": 16,
      "2": 17,
      "3": 18,
      "4": 19,
      "5": 20,
      "6": 21,
      "7": 22,
      "8": 23,
      "9": 24,
      ":": 25,
      ";": 26,
      "<": 27,
      "=": 28,
      ">": 29,
      "?": 30,
      "@": 31,
      "A": 32,
      "B": 33,
      "C": 34,
      "D": 35,
      "E": 36,
      "F": 37,
      "G": 38,
      "H": 39,
      "I": 40,
      "J": 41,
      "K": 42,
      "L": 43,
      "M": 44,
      "N": 45,
      "O": 46,
      "P": 47,
      "Q": 48,
      "R": 49,
      "S": 50,
      "T": 51,
      "U": 52,
      "V": 53,
      "W": 54,
      "X": 55,
      "Y": 56,
      "Z": 57,
      "[": 58,
      "\\": 59,
      "]": 60,
      "^": 61,
      "_": 62,
      "`": 63,
      "a": 64,
      "b": 65,
      "c": 66,
      "d": 67,
      "e": 68,
      "f": 69,
      "g": 70,
      "h": 71,
      "i": 72,
      "j": 73,
      "k": 74,
      "l": 75,
      "m": 76,
      "n": 77,
      "o": 78,
      "p": 79,
      "q": 80,
      "r": 81,
      "s": 82,
      "t": 83,
      "u": 84,
      "v": 85,
      "w": 86,
      "x": 87,
      "y": 88,
      "z": 89,
      "{": 90,
      "|": 91,
      "}": 92,
      "~": 93,
      "¡": 94,
      "¢": 95,
      "£": 96,
      "¤": 97,
      "¥": 98,
      "¦": 99,
      "§": 100,
      "¨": 101,
      "©": 102,
      "ª": 103,
      "«": 104,
      "¬": 105,
      "®": 106,
      "¯": 107,
      "°": 108,
      "±": 109,
      "²": 110,
      "³": 111,
      "´": 112,
      "µ": 113,
      "¶": 114,
      "·": 115,
      "¸": 116,
      "¹": 117,
      "º": 118,
      "»": 119,
      "¼": 120,
      "½": 121,
      "¾": 122,
      "¿": 123,
      "À": 124,
      "Á": 125,
      "Â": 126,
      "Ã": 127,
      "Ä": 128,
      "Å": 129,
      "Æ": 130,
      "Ç": 131,
      "È": 132,
      "É": 133,
      "Ê": 134,
      "Ë": 135,
      "Ì": 136,
      "Í": 137,
      "Î": 138,
      "Ï": 139,
      "Ð": 140,
      "Ñ": 141,
      "Ò": 142,
      "Ó": 143,
      "Ô": 144,
      "Õ": 145,
      "Ö": 146,
      "×": 147,
      "Ø": 148,
      "Ù": 149,
      "Ú": 150,
      "Û": 151,
      "Ü": 152,
      "Ý": 153,
      "Þ": 154,
      "ß": 155,
      "à": 156,
      "á": 157,
      "â": 158,
      "ã": 159,
      "ä": 160,
      "å": 161,
      "æ": 162,
      "ç": 163,
      "è": 164,
      "é": 165,
      "ê": 166,
      "ë": 167,
      "ì": 168,
      "í": 169,
      "î": 170,
      "ï": 171,
      "ð": 172,
      "ñ": 173,
      "ò": 174,
      "ó": 175,
      "ô": 176,
      "õ": 177,
      "ö": 178,
      "÷": 179,
      "ø": 180,
      "ù": 181,
      "ú": 182,
      "û": 183,
      "ü": 184,
      "ý": 185,
      "þ": 186,
      "ÿ": 187,
      "Ā": 188,
      "ā": 189,
      "Ă": 190,
      "ă": 191,
      "Ą": 192,
      "ą": 193,
      "Ć": 194,
      "ć": 195,
      "Ĉ": 196,
      "ĉ": 197,
      "Ċ": 198,
      "ċ": 199,
      "Č": 200,
      "č": 201,
      "Ď": 202,
      "ď": 203,
      "Đ": 204,
      "đ": 205,
      "Ē": 206,
      "ē": 207,
      "Ĕ": 208,
      "ĕ": 209,
      "Ė": 210,
      "ė": 211,
      "Ę": 212,
      "ę": 213,
      "Ě": 214,
      "ě": 215,
      "Ĝ": 216,
      "ĝ": 217,
      "Ğ": 218,
      "ğ": 219,
      "Ġ": 220,
      "ġ": 221,
      "Ģ": 222,
      "ģ": 223,
      "Ĥ": 224,
      "ĥ": 225,
      "Ħ": 226,
      "ħ": 227,
      "Ĩ": 228,
      "ĩ": 229,
      "Ī": 230,
      "ī": 231,
      "Ĭ": 232,
      "ĭ": 233,
      "Į": 234,
      "į": 235,
      "İ": 236,
      "ı": 237,
      "Ĳ": 238,
      "ĳ": 239,
      "Ĵ": 240,
      "ĵ": 241,
      "Ķ": 242,
      "ķ": 243,
      "ĸ": 244,
      "Ĺ": 245,
      "ĺ": 246,
      "Ļ": 247,
      "ļ": 248,
      "Ľ": 249,
      "ľ": 250,
      "Ŀ": 251,
      "ŀ": 252,
      "Ł": 253,
      "ł": 254,
      "Ń": 255,
      "Ġt": 256,
      "ĠĠ": 257,
      "Ġa": 258,
      "in": 259,
      "he": 260,
      "re": 261,
      "Ġì": 262,
      "on": 263,
      "Ġs": 264,
      "Ġc": 265,
      "er": 266,
      "Ġthe": 267,
      "à¸": 268,
      "at": 269,
      "or": 270,
      "en": 271,
      "es": 272,
      "ĊĊ": 273,
      "ìĿ": 274,
      "Ġw": 275,
      "it": 276,
      "Ġë": 277,
      "is": 278,
      "ĠĠĠĠ": 279,
      "an": 280,
      "ou": 281,
      "Ġp": 282,
      "Ġb": 283,
      "al": 284,
      "Ġo": 285,
      "ing": 286,
      "Ġf": 287,
      "Ġm": 288,
      "Ġan": 289,
      "ãģ": 290,
      "á»": 291,
      "Ġd": 292,
      "ar": 293,
      "ed": 294,
      "Ġto": 295,
      "Ġin": 296,
      "Ġof": 297,
      "le": 298,
      "ion": 299,
      "Ġn": 300,
      "Ġand": 301,
      "Ġth": 302,
      "ic": 303,
      "íķ": 304,
      "Ġh": 305,
      "ëĭ": 306,
      "om": 307,
      "Ġl": 308,
      "as": 309,
      "Ġê": 310,
      "Ġe": 311,
      "áº": 312,
      "ent": 313,
      "ct": 314,
      "st": 315,
      "et": 316,
      "ro": 317,
      "el": 318,
      "il": 319,
      ".ĊĊ": 320,
      "Ġg": 321,
      "Ġre": 322,
      "00": 323,
      "ĠĠĠ": 324,
      "ìĹ": 325,
      "Ġis": 326,
      "Ġy": 327,
      "ch": 328,
      "Âł": 329,
      "ĠT": 330,
      "ìĿ´": 331,
      "ve": 332,
      "à¹": 333,
      "ëĭ¤": 334,
      "im": 335,
      "ëĬ": 336,
      "ng": 337,
      "am": 338,
      "us": 339,
      "ot": 340,
      "Ġv": 341,
      "ãĤ": 342,
      "id": 343,
      "Ġyou": 344,
      "ow": 345,
      "ol": 346,
      "ëĬĶ": 347,
      "ê³": 348,
      "ĠI": 349,
      "ce": 350,
      "ig": 351,
      "Ġfor": 352,
      "ly": 353,
      "Ġí": 354,
      "ut": 355,
      "Ġbe": 356,
      "ay": 357,
      "ation": 358,
      "ê°": 359,
      "ĠĠĠĠĠĠĠĠ": 360,
      "if": 361,
      "ra": 362,
      "Ġst": 363,
      "Ġon": 364,
      "Ġthat": 365,
      "ĠS": 366,
      "íķĺ": 367,
      "ir": 368,
      "ĠA": 369,
      "ur": 370,
      "un": 371,
      "ìĦ": 372,
      "Ġ\"": 373,
      "ìĹĲ": 374,
      "ul": 375,
      "ìĿĦ": 376,
      "--": 377,
      "ĠC": 378,
      "ĠÄ": 379,
      "se": 380,
      "ì§": 381,
      "ad": 382,
      "ìł": 383,
      "Ġch": 384,
      "ver": 385,
      "Ġk": 386,
      "ìŀ": 387,
      "ith": 388,
      "ĠÄĳ": 389,
      "ãĥ": 390,
      "Ġit": 391,
      "##": 392,
      "od": 393,
      "ãĢ": 394,
      "ë¡": 395,
      "Ġìŀ": 396,
      "Ãł": 397,
      "Ġ(": 398,
      "qu": 399,
      "Ġas": 400,
      "ge": 401,
      "Ġcon": 402,
      "Ġare": 403,
      "Ġwith": 404,
      "ìĿĺ": 405,
      "ê³ł": 406,
      "Īëĭ¤": 407,
      "um": 408,
      "ers": 409,
      "Ġpro": 410,
      "her": 411,
      "ë¡ľ": 412,
      "ìļ": 413,
      "ë¥": 414,
      "ê¸": 415,
      "Ġ=": 416,
      "Ġal": 417,
      "Ġwh": 418,
      "ate": 419,
      "ìĭ": 420,
      "ĠìĿ": 421,
      "Ġ-": 422,
      "Ġor": 423,
      "ess": 424,
      "ab": 425,
      "out": 426,
      "est": 427,
      "ìķ": 428,
      "ĠM": 429,
      "ê°Ģ": 430,
      "ëı": 431,
      "ist": 432,
      "000": 433,
      "op": 434,
      "ĠP": 435,
      "ì§Ģ": 436,
      "ĠĠĠĠĠĠĠ": 437,
      "íķľ": 438,
      "Ġr": 439,
      "Ġex": 440,
      "em": 441,
      "ë¦": 442,
      "Ġtr": 443,
      "ä¸": 444,
      "ê²": 445,
      "ter": 446,
      "âĢ": 447,
      "ac": 448,
      "ill": 449,
      "ort": 450,
      "Æ°": 451,
      "pp": 452,
      "ĠB": 453,
      "ìľ": 454,
      "ĠThe": 455,
      "Ġcom": 456,
      "ìĬ": 457,
      "ak": 458,
      "Ġhe": 459,
      "ore": 460,
      "'s": 461,
      "Ġde": 462,
      "ìĿĢ": 463,
      "ect": 464,
      "..": 465,
      "oc": 466,
      "Ġcan": 467,
      "res": 468,
      "Ġwe": 469,
      "ëĵ": 470,
      "th": 471,
      "and": 472,
      "rom": 473,
      "ìĦľ": 474,
      "Ġha": 475,
      "Ã¡": 476,
      "ri": 477,
      "ment": 478,
      "ìĸ": 479,
      "ld": 480,
      "ëĭĪëĭ¤": 481,
      "Ĥ¬": 482,
      "ht": 483,
      "ë¥¼": 484,
      "ĠH": 485,
      "Ġìķ": 486,
      "Ġê°": 487,
      "os": 488,
      "à¸²": 489,
      "Ġìł": 490,
      "ity": 491,
      "Ġus": 492,
      "ĠW": 493,
      "ëĤ": 494,
      "ë§": 495,
      "ê¸°": 496,
      "oun": 497,
      "ĠD": 498,
      "Ġsu": 499,
      "ant": 500,
      "our": 501,
      "ain": 502,
      "iv": 503,
      "ëıĦ": 504,
      "ĠN": 505,
      ")Ċ": 506,
      "ive": 507,
      "Īĺ": 508,
      "Ġne": 509,
      "Ġ$": 510,
      "ë¦¬": 511,
      "Ġyour": 512,
      ".Ċ": 513,
      "ies": 514,
      "ĠF": 515,
      "ud": 516,
      "Ġnot": 517,
      "pt": 518,
      "Ġat": 519,
      "à¸²à¸": 520,
      "art": 521,
      "Ġse": 522,
      "ĠE": 523,
      "ë©": 524,
      "pl": 525,
      "Ġë§": 526,
      "all": 527,
      "pe": 528,
      "iá»": 529,
      "Ġë°": 530,
      "ren": 531,
      "ĠR": 532,
      "Ġhave": 533,
      "Ġê²": 534,
      "end": 535,
      "ame": 536,
      "ĠL": 537,
      "Ġby": 538,
      "íķ´": 539,
      "og": 540,
      "Ġsh": 541,
      "ìĸ´": 542,
      "Ġthis": 543,
      "Ġle": 544,
      "ure": 545,
      "Ġfrom": 546,
      "Ġnh": 547,
      "ight": 548,
      "ial": 549,
      "à¸Ļ": 550,
      "Æ°á»": 551,
      "ust": 552,
      "ëł": 553,
      "ãĢĤ": 554,
      "age": 555,
      "Ġ'": 556,
      "ĠìĿ´": 557,
      "ĮĢ": 558,
      "·¸": 559,
      "ìľ¼": 560,
      "Ġdo": 561,
      "ĠG": 562,
      "ag": 563,
      "20": 564,
      "ome": 565,
      "Ġun": 566,
      "ine": 567,
      "äº": 568,
      "ëĿ": 569,
      "ould": 570,
      "----": 571,
      "ost": 572,
      "ions": 573,
      "Ġìĭ": 574,
      "ìĿ¸": 575,
      "per": 576,
      "nh": 577,
      "Ġab": 578,
      "Ġwor": 579,
      "à¹Ī": 580,
      "ong": 581,
      "ë³": 582,
      "ĠìŀĪ": 583,
      "Ġim": 584,
      "Ġwas": 585,
      "áº¿": 586,
      "ĠìĹ": 587,
      "Ġqu": 588,
      "Ã´": 589,
      "elf": 590,
      "áº¡": 591,
      "ëĿ¼": 592,
      "iz": 593,
      "ëŀ": 594,
      "çļ": 595,
      "ìĽ": 596,
      "Ġph": 597,
      "Ġif": 598,
      "êµ": 599,
      "up": 600,
      "ìĭľ": 601,
      "çļĦ": 602,
      "red": 603,
      "one": 604,
      "ë°": 605,
      "ĠëĤ": 606,
      "\"Ċ": 607,
      "à¸Ń": 608,
      "ical": 609,
      "ue": 610,
      "ib": 611,
      ":Ċ": 612,
      "ult": 613,
      "Ġpl": 614,
      "ide": 615,
      "ê²Į": 616,
      "ard": 617,
      "te": 618,
      "ìĥ": 619,
      "act": 620,
      "Ġen": 621,
      "==": 622,
      "ind": 623,
      "####": 624,
      "£¼": 625,
      "Ġkh": 626,
      "ë¬": 627,
      "Ġwill": 628,
      "ĠO": 629,
      "ip": 630,
      "ell": 631,
      "Ã³": 632,
      "hen": 633,
      "ë¶": 634,
      "ff": 635,
      "ok": 636,
      "ëĤĺ": 637,
      "cl": 638,
      "port": 639,
      "Ġj": 640,
      "int": 641,
      "Ġall": 642,
      "ãģ®": 643,
      "ãĢģ": 644,
      "gh": 645,
      "à¹Ģ": 646,
      "ile": 647,
      "Ġthey": 648,
      "ë©´": 649,
      "ĠTh": 650,
      "ëĵ¤": 651,
      "Ġëĭ": 652,
      "ie": 653,
      "The": 654,
      "ther": 655,
      "ĠìĦ": 656,
      "áº£": 657,
      "able": 658,
      "ass": 659,
      "orm": 660,
      "ìŀĲ": 661,
      "de": 662,
      "ĠĠĠĠĠĠĠĠĠĠĠ": 663,
      "à¹ī": 664,
      "ìĬ¤": 665,
      "ake": 666,
      "à¸£": 667,
      "Ãª": 668,
      "cho": 669,
      "Ġcomp": 670,
      "Ġtheir": 671,
      "ke": 672,
      "ack": 673,
      "Ġì§": 674,
      "æľ": 675,
      "ĠIn": 676,
      "à¸ģ": 677,
      "ĠìĪĺ": 678,
      "ich": 679,
      "Ġê³": 680,
      "ìľ¼ë¡ľ": 681,
      "ime": 682,
      "Ġad": 683,
      "der": 684,
      "Ġë³": 685,
      "ëį": 686,
      "Ġme": 687,
      "Ġìĺ": 688,
      "ìĺ": 689,
      "ĠìĤ¬": 690,
      "ans": 691,
      "ëŁ": 692,
      "á»Ļ": 693,
      "ound": 694,
      "ast": 695,
      "'t": 696,
      "ang": 697,
      "ìļĶ": 698,
      "Ġbut": 699,
      "cc": 700,
      "ap": 701,
      "ated": 702,
      "con": 703,
      "Ġar": 704,
      "Ġgo": 705,
      "ìķĦ": 706,
      "ê³¼": 707,
      "ìĬµ": 708,
      "Ġê·¸": 709,
      "ãģĦ": 710,
      "du": 711,
      "Ġcl": 712,
      "10": 713,
      "Ġ[": 714,
      "ear": 715,
      "áº¥": 716,
      "Ġê¸": 717,
      "ally": 718,
      "Ġres": 719,
      "ice": 720,
      "Ġmore": 721,
      "ase": 722,
      "íĻ": 723,
      "å¤": 724,
      "ction": 725,
      ")ĊĊ": 726,
      "Ġint": 727,
      "ìĤ¬": 728,
      "ĠU": 729,
      "åı": 730,
      "ì²": 731,
      "à¸ĩ": 732,
      "Ġout": 733,
      "Ġso": 734,
      "ance": 735,
      "Ġíķĺ": 736,
      "åħ": 737,
      "ä»": 738,
      "ous": 739,
      "Ġcont": 740,
      "so": 741,
      "__": 742,
      "ach": 743,
      "Ġhas": 744,
      "ents": 745,
      "à¸±": 746,
      "ìĹĲìĦľ": 747,
      "ations": 748,
      "are": 749,
      "${": 750,
      "ia": 751,
      "ub": 752,
      "ign": 753,
      "Ġìĥ": 754,
      "à¹Ģà¸": 755,
      "ild": 756,
      "ë§Į": 757,
      "fe": 758,
      "ex": 759,
      "ook": 760,
      "ìĬµëĭĪëĭ¤": 761,
      "ep": 762,
      "ath": 763,
      "Ġli": 764,
      "á»ĳ": 765,
      "Ġëª": 766,
      "íĸ": 767,
      "ks": 768,
      "com": 769,
      "Ġê°Ģ": 770,
      "Ġone": 771,
      "Ġx": 772,
      "ë²": 773,
      "ary": 774,
      "ence": 775,
      "Ġê²ĥ": 776,
      "Ġwhich": 777,
      "vel": 778,
      "rent": 779,
      "ough": 780,
      "Ġíķ": 781,
      "ì¹": 782,
      "Ġë¶": 783,
      "Ġ#": 784,
      "ìłķ": 785,
      "ìĨ": 786,
      "iá»ĩ": 787,
      "Ã¢": 788,
      "ber": 789,
      "av": 790,
      "ìĻ": 791,
      "à¸µ": 792,
      "à¸¡": 793,
      "ace": 794,
      "Ġup": 795,
      "ëĲ": 796,
      "ĠV": 797,
      "ìłģ": 798,
      "Ġabout": 799,
      "Ã´ng": 800,
      "Ġother": 801,
      "Ġng": 802,
      "ail": 803,
      "ĠJ": 804,
      "ãģ§": 805,
      "ress": 806,
      "Ġdis": 807,
      "ose": 808,
      "ite": 809,
      "form": 810,
      "ìŀ¥": 811,
      "Ġman": 812,
      "Ã¬": 813,
      "Ãªn": 814,
      "ry": 815,
      "ĠâĢ": 816,
      "ire": 817,
      "ëĮĢ": 818,
      "íĺ": 819,
      "ãģĹ": 820,
      "Ġapp": 821,
      "ru": 822,
      "now": 823,
      "ĠìķĦ": 824,
      "å®": 825,
      "ëª": 826,
      "urn": 827,
      "ÂłÂł": 828,
      "ition": 829,
      "Ġ\\": 830,
      "ount": 831,
      "ìĥģ": 832,
      "Ġìľ": 833,
      "aus": 834,
      "Ġthen": 835,
      "Ġper": 836,
      "ens": 837,
      "ãģ¦": 838,
      "ory": 839,
      "ĠÄĳá»": 840,
      "Ġthem": 841,
      "Ġsc": 842,
      "19": 843,
      "ãģ«": 844,
      ",Ċ": 845,
      "ĠK": 846,
      "ĠvÃł": 847,
      "åĪ": 848,
      "¹Ħ": 849,
      "íĬ": 850,
      "ĠY": 851,
      "ìĪĺ": 852,
      "ìļ©": 853,
      "=\"": 854,
      "reat": 855,
      "Ġalso": 856,
      "Ġte": 857,
      "Ġev": 858,
      "ë³´": 859,
      "ata": 860,
      "Ġsome": 861,
      "ìĿ¼": 862,
      "Ġget": 863,
      "ì£¼": 864,
      "Ġsp": 865,
      "ll": 866,
      "ely": 867,
      "Ġpe": 868,
      "ple": 869,
      "á»§": 870,
      "ĠIt": 871,
      "ck": 872,
      "íĥ": 873,
      "Ġself": 874,
      "Ġvá»": 875,
      "ä½": 876,
      "ob": 877,
      "à¸§": 878,
      "Ġtime": 879,
      "?ĊĊ": 880,
      "Ġhow": 881,
      "ord": 882,
      "Ġfe": 883,
      "Ġìĸ": 884,
      "çĶ": 885,
      "ìĽĲ": 886,
      "ãģ¨": 887,
      "ëħ": 888,
      "ors": 889,
      "ays": 890,
      "Ġëĵ": 891,
      "get": 892,
      "ê±": 893,
      "Ġwhen": 894,
      "low": 895,
      "ãģŁ": 896,
      "åĲ": 897,
      "Æ¡": 898,
      "ĠlÃł": 899,
      "ĠëĮĢ": 900,
      "ings": 901,
      "Ġê¸°": 902,
      "ãĢĤĊ": 903,
      "Ġëı": 904,
      "Ġthere": 905,
      "ãģª": 906,
      "ces": 907,
      "ìłľ": 908,
      "Ġwho": 909,
      "ree": 910,
      "íķĺëĬĶ": 911,
      "Ġwhat": 912,
      "**": 913,
      "ë¶Ģ": 914,
      "201": 915,
      "åľ": 916,
      "Ġpre": 917,
      "ys": 918,
      "Ġpart": 919,
      "à¸¥": 920,
      "Ġwork": 921,
      "Ġany": 922,
      "áºŃ": 923,
      "--------": 924,
      "à¸Ķ": 925,
      "Ġlike": 926,
      "ìĦ±": 927,
      "Ġë¬": 928,
      "ople": 929,
      "ph": 930,
      "ëĭĪ": 931,
      "Ġtra": 932,
      "Ġë³´": 933,
      "Ġneed": 934,
      "ject": 935,
      "à¸¢": 936,
      "Ġro": 937,
      "gr": 938,
      "Ġuse": 939,
      "ater": 940,
      "¤ĳ": 941,
      "Ġstud": 942,
      "Ġknow": 943,
      "Ġ/": 944,
      "Ġcomm": 945,
      "íĬ¸": 946,
      "Ġìļ": 947,
      "Ġpr": 948,
      "ĠCh": 949,
      "Ġthan": 950,
      "Ġsa": 951,
      "áº§": 952,
      "Ġìĭľ": 953,
      "Ġ+": 954,
      "čĊ": 955,
      "lp": 956,
      "Ġra": 957,
      "Ġdif": 958,
      "ãģĻ": 959,
      "Ġëĭ¤": 960,
      "ood": 961,
      "Ġ--": 962,
      "ë¯": 963,
      "ĠThis": 964,
      "æĺ": 965,
      "ual": 966,
      "Ã¡c": 967,
      "Ġthá»": 968,
      "ove": 969,
      "ink": 970,
      "ĠSt": 971,
      "Ġspe": 972,
      "Ġêµ": 973,
      "ause": 974,
      "ìĻĢ": 975,
      "12": 976,
      "ne": 977,
      "è¿": 978,
      "we": 979,
      "ãģĮ": 980,
      "Ġì§Ģ": 981,
      "Ġsy": 982,
      "ìĹ¬": 983,
      "self": 984,
      "Ġpeople": 985,
      "à¸Ĺ": 986,
      "here": 987,
      "sh": 988,
      "ãĤĭ": 989,
      "ĠĠĠĠĠĠĠĠĠĠĠĠĠĠĠĠ": 990,
      "Ġinto": 991,
      "ì°": 992,
      "¡°": 993,
      "Æ°á»Ŀ": 994,
      "Ġwould": 995,
      "ĠëĲ": 996,
      "====": 997,
      "ĠìŀĲ": 998,
      "uy": 999,
      "),": 1000,
      "Ġbec": 1001,
      "iáº¿": 1002,
      "ÃŃ": 1003,
      "æĸ": 1004,
      "Ġem": 1005,
      "ëıĻ": 1006,
      "©ëĭĪëĭ¤": 1007,
      "ëĵľ": 1008,
      "In": 1009,
      "ict": 1010,
      "Ġbet": 1011,
      "å°": 1012,
      "Ġ:": 1013,
      "ER": 1014,
      "Ġhelp": 1015,
      "Ġover": 1016,
      "ãģ¯": 1017,
      "ìĤ": 1018,
      "à¸´": 1019,
      "Ġcol": 1020,
      "ish": 1021,
      "Ġnum": 1022,
      "ãģ¾": 1023,
      "´Ģ": 1024,
      "Ġmay": 1025,
      "ĠcÃ³": 1026,
      "íĻĶ": 1027,
      "ĠìĨ": 1028,
      "ìłĦ": 1029,
      "pro": 1030,
      "Ġíķľ": 1031,
      "Ġhis": 1032,
      "Æ°á»£": 1033,
      "ick": 1034,
      "êµ¬": 1035,
      "Ľi": 1036,
      "à¸ļ": 1037,
      "ĠëĤĺ": 1038,
      "Ġact": 1039,
      "ìŀħ": 1040,
      "Ġdef": 1041,
      "erv": 1042,
      "íķł": 1043,
      "ms": 1044,
      "ari": 1045,
      "eth": 1046,
      "Ġour": 1047,
      "ĠAn": 1048,
      "ĉĉ": 1049,
      "Ġ|": 1050,
      "cess": 1051,
      "Ġmy": 1052,
      "very": 1053,
      "rit": 1054,
      "ëį°": 1055,
      "Ġ{": 1056,
      "irst": 1057,
      "ning": 1058,
      "Ġcá»§": 1059,
      "åĽ": 1060,
      "ķĮ": 1061,
      "ìķ¼": 1062,
      "ates": 1063,
      "ĠíĻ": 1064,
      "Ġacc": 1065,
      "Ġì£¼": 1066,
      "ê°Ħ": 1067,
      "Ġnew": 1068,
      "ê¹": 1069,
      "########": 1070,
      "Ġjust": 1071,
      "ëŁ¬": 1072,
      "Ġcá»§a": 1073,
      "lect": 1074,
      "æĹ": 1075,
      "Ġret": 1076,
      "Ġê±": 1077,
      "Ġwere": 1078,
      "æĪ": 1079,
      "_d": 1080,
      "áº¥t": 1081,
      "ìļ°": 1082,
      "ãĤĴ": 1083,
      "hat": 1084,
      "ĠìłĦ": 1085,
      "ft": 1086,
      "ert": 1087,
      "...": 1088,
      "row": 1089,
      "Ġìłķ": 1090,
      "íĦ": 1091,
      "Ġbl": 1092,
      "clud": 1093,
      "íķĺê³ł": 1094,
      "ific": 1095,
      "à¸°": 1096,
      "ä¸Ģ": 1097,
      "Ġimport": 1098,
      "own": 1099,
      "ìĭł": 1100,
      "Ġcho": 1101,
      "Ġyear": 1102,
      "Ġtá»": 1103,
      "ark": 1104,
      "ange": 1105,
      "ics": 1106,
      "ode": 1107,
      "Ġmake": 1108,
      "ov": 1109,
      "cre": 1110,
      "()": 1111,
      "Ġdes": 1112,
      "stem": 1113,
      "ãĥ¼": 1114,
      "11": 1115,
      "xt": 1116,
      "ê·¸": 1117,
      "à¸ķ": 1118,
      "åĬ": 1119,
      "les": 1120,
      "ë¬¸": 1121,
      "Ġinst": 1122,
      "oint": 1123,
      "AT": 1124,
      "à¸ª": 1125,
      "Ġno": 1126,
      "Ġag": 1127,
      "ble": 1128,
      "put": 1129,
      "Ġ\"$": 1130,
      "ìĨĮ": 1131,
      "\"ĊĊ": 1132,
      "vers": 1133,
      "Ġtw": 1134,
      "Ġam": 1135,
      "Ġthese": 1136,
      "Ġadd": 1137,
      "ë£": 1138,
      "ì¹ĺ": 1139,
      "Ġunder": 1140,
      "Ġdiffe": 1141,
      "Ġì°": 1142,
      "ery": 1143,
      "Ġoff": 1144,
      "Ġcons": 1145,
      "âĢ¢": 1146,
      "Ġits": 1147,
      "ons": 1148,
      "ä¹": 1149,
      "ize": 1150,
      "Ãº": 1151,
      "ating": 1152,
      "Ġgr": 1153,
      "Ġ]": 1154,
      "à¸Ħ": 1155,
      "ful": 1156,
      "à¸«": 1157,
      "igh": 1158,
      "ian": 1159,
      "ty": 1160,
      "áº¡i": 1161,
      "n't": 1162,
      "Ġ${": 1163,
      "Ġval": 1164,
      "Ġonly": 1165,
      "ì¶": 1166,
      "Ġbeen": 1167,
      ":ĊĊ": 1168,
      "ock": 1169,
      "ax": 1170,
      "name": 1171,
      "ities": 1172,
      "ìĦ¸": 1173,
      "``": 1174,
      "rough": 1175,
      "íĦ°": 1176,
      "ient": 1177,
      "ãģ£": 1178,
      "Ġinter": 1179,
      "Ġset": 1180,
      "ë©°": 1181,
      "Ġmost": 1182,
      "Ġrel": 1183,
      "ments": 1184,
      "ãģĭ": 1185,
      "íĶ": 1186,
      "à¹ģ": 1187,
      "ps": 1188,
      "Ġprov": 1189,
      "ise": 1190,
      "á»¯": 1191,
      "ëł¤": 1192,
      "äºº": 1193,
      "ìĿĮ": 1194,
      "15": 1195,
      "ds": 1196,
      "Ġíĺ": 1197,
      "Ġfun": 1198,
      "ON": 1199,
      "å¹": 1200,
      "ract": 1201,
      "Ġshould": 1202,
      ").": 1203,
      "ë¹Ħ": 1204,
      "olog": 1205,
      "ener": 1206,
      "ting": 1207,
      "ìĤ°": 1208,
      "):Ċ": 1209,
      "Ġìłľ": 1210,
      "Ĩµ": 1211,
      "Ġass": 1212,
      "Ġëį": 1213,
      "åŃ": 1214,
      "Ġì¢": 1215,
      "Ġpos": 1216,
      "ëĲĺ": 1217,
      "ĠìĿ¼": 1218,
      "lic": 1219,
      "Ġco": 1220,
      ";Ċ": 1221,
      "ular": 1222,
      "Ġfirst": 1223,
      "Ã£": 1224,
      "Äĥ": 1225,
      "ility": 1226,
      "ork": 1227,
      "Ġke": 1228,
      "IN": 1229,
      "Ġëª¨": 1230,
      "Ġhá»": 1231,
      "Ġmu": 1232,
      "ĠĠĠĠĠĠĠĠĠĠĠĠĠĠĠ": 1233,
      "Ġexp": 1234,
      "Ġused": 1235,
      "ffect": 1236,
      "its": 1237,
      "on't": 1238,
      "áº¯": 1239,
      "Ġreturn": 1240,
      "á»Ļt": 1241,
      "Ġthrough": 1242,
      "Ġtwo": 1243,
      "Ġind": 1244,
      "íĮ": 1245,
      "alth": 1246,
      "Ġmod": 1247,
      "ST": 1248,
      "ä¼": 1249,
      "iew": 1250,
      "//": 1251,
      "Ġinclud": 1252,
      "å¥": 1253,
      "Ġsuch": 1254,
      "à¹Ħ": 1255,
      "ê¹Į": 1256,
      "ëŀĺ": 1257,
      "Ġdoes": 1258,
      "18": 1259,
      "ê±°": 1260,
      "als": 1261,
      "Æ°á»£c": 1262,
      "ë¶Ħ": 1263,
      "Ġob": 1264,
      "íŀ": 1265,
      "Ġty": 1266,
      "Ġgi": 1267,
      "ëħĦ": 1268,
      "Ġspec": 1269,
      "pr": 1270,
      "oth": 1271,
      "ì§Ħ": 1272,
      "rib": 1273,
      "ãĤĤ": 1274,
      "ļĮ": 1275,
      "Ġrec": 1276,
      "åį": 1277,
      "Ġhad": 1278,
      "êµŃ": 1279,
      "æī": 1280,
      "ë¬´": 1281,
      "Ġê²½": 1282,
      "fter": 1283,
      "Ġmany": 1284,
      "30": 1285,
      "ible": 1286,
      "Ġstr": 1287,
      "ê¸Ī": 1288,
      "RE": 1289,
      "ĠìľĦ": 1290,
      "Ġwhere": 1291,
      "Ġ.": 1292,
      "Ġfl": 1293,
      "Ġ&": 1294,
      "ocal": 1295,
      "ĠìķĬ": 1296,
      "arch": 1297,
      "iá»ģ": 1298,
      "ë§Ī": 1299,
      "ìĭĿ": 1300,
      "ĠìĿ¸": 1301,
      "Ġbecause": 1302,
      "_p": 1303,
      "ix": 1304,
      "Ġìĸ´": 1305,
      "Ġbu": 1306,
      "}Ċ": 1307,
      "ĠìŀĪëĬĶ": 1308,
      "Ã¬nh": 1309,
      "ative": 1310,
      "che": 1311,
      "ss": 1312,
      "Ġform": 1313,
      "Ġevery": 1314,
      "fore": 1315,
      "ĠkhÃ´ng": 1316,
      "Ġprodu": 1317,
      "æĿ": 1318,
      "æĺ¯": 1319,
      "ower": 1320,
      "Ġway": 1321,
      "200": 1322,
      "erm": 1323,
      "Ġì²": 1324,
      "Ġì¤ĳ": 1325,
      "ures": 1326,
      "Ġë²": 1327,
      "Ġë¶Ģ": 1328,
      "ec": 1329,
      "Ġì¶": 1330,
      "_s": 1331,
      "ont": 1332,
      "á»ĭ": 1333,
      "Ġwant": 1334,
      "ĠëĤ´": 1335,
      "oy": 1336,
      "ĠIf": 1337,
      "cept": 1338,
      "ĠìĥĿ": 1339,
      "Ġchild": 1340,
      "Ġel": 1341,
      "ĠëķĮ": 1342,
      "ìŀħëĭĪëĭ¤": 1343,
      "Th": 1344,
      "',": 1345,
      "Ġsee": 1346,
      "ç»": 1347,
      "16": 1348,
      "ience": 1349,
      "velop": 1350,
      "ced": 1351,
      "ĠHe": 1352,
      "Ġher": 1353,
      "á»±": 1354,
      "arg": 1355,
      "ash": 1356,
      "Ġdata": 1357,
      "Ġinv": 1358,
      "\",": 1359,
      "cy": 1360,
      "ìĹħ": 1361,
      "ife": 1362,
      "ëĦ": 1363,
      "Ġecho": 1364,
      "à¸Ī": 1365,
      "Ġìĥģ": 1366,
      "ĠÄĳÆ°á»£c": 1367,
      "wn": 1368,
      "ĠìĤ": 1369,
      "éĢ": 1370,
      "Ġrem": 1371,
      "ĠìĹĨ": 1372,
      "Ġatt": 1373,
      "Ġë§Ī": 1374,
      "å¾": 1375,
      "íŀĪ": 1376,
      "ĠâĢĵ": 1377,
      "ied": 1378,
      "Ġpers": 1379,
      "íĸī": 1380,
      "Ġsub": 1381,
      "Ġdifferent": 1382,
      "ution": 1383,
      "Ġreg": 1384,
      "Ġfol": 1385,
      "ìĿ´ëĭ¤": 1386,
      "Ġsystem": 1387,
      "Ġwell": 1388,
      "ãĥ³": 1389,
      "Ġsim": 1390,
      "Ġi": 1391,
      "Ġsupp": 1392,
      "Ġ>": 1393,
      "ãĤĬ": 1394,
      "è¯": 1395,
      "aking": 1396,
      "_t": 1397,
      "ìļ´": 1398,
      "ãģĨ": 1399,
      "echo": 1400,
      "Ã¢n": 1401,
      "à¹ĥ": 1402,
      "Ġíķ´": 1403,
      "Ġcould": 1404,
      "ĠYou": 1405,
      "Ġmá»Ļt": 1406,
      "íı": 1407,
      "Ġsm": 1408,
      "ween": 1409,
      "chool": 1410,
      "uring": 1411,
      "åľ¨": 1412,
      "read": 1413,
      "Ġit's": 1414,
      "Ġlear": 1415,
      "ë¯¸": 1416,
      "ample": 1417,
      "bin": 1418,
      "ten": 1419,
      "Ġeach": 1420,
      "Ġexper": 1421,
      "ased": 1422,
      "ĠcÃ¡c": 1423,
      "ious": 1424,
      "ìĺ¤": 1425,
      "ê³µ": 1426,
      "ug": 1427,
      "Ġread": 1428,
      "ues": 1429,
      "25": 1430,
      "è¡": 1431,
      "ìĹĪ": 1432,
      "å¸": 1433,
      "ME": 1434,
      "'re": 1435,
      "Ġ<": 1436,
      "DI": 1437,
      "old": 1438,
      "ull": 1439,
      "iss": 1440,
      "ì¦": 1441,
      "éĩ": 1442,
      "Ġvari": 1443,
      "Ġche": 1444,
      "ê³Ħ": 1445,
      "Ġfind": 1446,
      "ages": 1447,
      "ëŀĮ": 1448,
      "ãĤĮ": 1449,
      "14": 1450,
      "Ġstart": 1451,
      "Ġbetween": 1452,
      "ë¥´": 1453,
      "mer": 1454,
      "Ġcur": 1455,
      "Ġshe": 1456,
      "íģ": 1457,
      "ĠìŀĪìĬµëĭĪëĭ¤": 1458,
      "LE": 1459,
      "Ġrequ": 1460,
      "Ġlook": 1461,
      "Ġeven": 1462,
      "ices": 1463,
      "ually": 1464,
      "app": 1465,
      "Æ°á»Ŀi": 1466,
      "á»¥": 1467,
      "Ġnumber": 1468,
      "ĠRe": 1469,
      "åĩ": 1470,
      "å¼": 1471,
      "Ġtrans": 1472,
      "Ġìĺ¤": 1473,
      "âĢ¦": 1474,
      "ĠUn": 1475,
      "åº": 1476,
      "ì§Ģë§Į": 1477,
      "ä¸į": 1478,
      "Ġcre": 1479,
      "Ġback": 1480,
      "å¤§": 1481,
      "á»©": 1482,
      "ãĤī": 1483,
      "ĠWe": 1484,
      "Ãły": 1485,
      "ìľł": 1486,
      "ational": 1487,
      "ĠQ": 1488,
      "ëĤ´": 1489,
      "à¸·": 1490,
      "ĠìĨĮ": 1491,
      "ric": 1492,
      "à¸²à¸£": 1493,
      "ĳĲ": 1494,
      "13": 1495,
      "Ġfi": 1496,
      "work": 1497,
      "ë¬¼": 1498,
      "Ġac": 1499,
      "Ġtest": 1500,
      "Ġíı": 1501,
      "OR": 1502,
      "æĢ": 1503,
      "Ġdon't": 1504,
      "_f": 1505,
      "('": 1506,
      "ily": 1507,
      "Ġlong": 1508,
      "Ġë°Ķ": 1509,
      "è¦": 1510,
      "Ã²": 1511,
      "Ġdevelop": 1512,
      "Ġusing": 1513,
      "atch": 1514,
      "á»Ł": 1515,
      "Ġíĸ": 1516,
      "ìĥĿ": 1517,
      "ĽĦ": 1518,
      "ëł¥": 1519,
      "100": 1520,
      "èĢ": 1521,
      "Ġhigh": 1522,
      "ĠëĲĺ": 1523,
      "=$": 1524,
      "ĠìĬ": 1525,
      "ĠìĽ": 1526,
      "Ġâ": 1527,
      "Ġbr": 1528,
      "ext": 1529,
      "ê·": 1530,
      "aw": 1531,
      "the": 1532,
      "ëªħ": 1533,
      "áº·": 1534,
      "Ġê³ł": 1535,
      "ãģĵ": 1536,
      "oad": 1537,
      "Ġë§Į": 1538,
      "Ġdi": 1539,
      "è®": 1540,
      "Ã¹": 1541,
      "áº¡n": 1542,
      "çĽ": 1543,
      "Ġthink": 1544,
      "ìľĦ": 1545,
      "ade": 1546,
      "Ġì¹": 1547,
      "Ġgood": 1548,
      "çī": 1549,
      "ĠìŀĪëĭ¤": 1550,
      "à¸Ľ": 1551,
      "Ġmin": 1552,
      "ĠìĹ¬": 1553,
      "ê²½": 1554,
      "Ġvery": 1555,
      "Ġpoint": 1556,
      "å·": 1557,
      "æľī": 1558,
      "tern": 1559,
      "Ġtrong": 1560,
      "íļĮ": 1561,
      "Ġmuch": 1562,
      "ĠìĻ": 1563,
      ".s": 1564,
      "ef": 1565,
      "à¸µà¹Ī": 1566,
      "Ġright": 1567,
      "ê°ģ": 1568,
      "fig": 1569,
      "stand": 1570,
      "Ġ\\Ċ": 1571,
      "50": 1572,
      "Ġhealth": 1573,
      "Ġsol": 1574,
      "Ġìľł": 1575,
      "Ġê³µ": 1576,
      "Ġresult": 1577,
      "line": 1578,
      "à¸Ńà¸ĩ": 1579,
      "ins": 1580,
      "other": 1581,
      "gram": 1582,
      "17": 1583,
      "ines": 1584,
      "Ġë¯": 1585,
      "Ġsame": 1586,
      "Ġsk": 1587,
      "ì¡°": 1588,
      "Ġë¹Ħ": 1589,
      "äºĨ": 1590,
      "Ġinf": 1591,
      "áº§n": 1592,
      "Ġdet": 1593,
      "Ġfollow": 1594,
      "Ġequ": 1595,
      "ìĭ¤": 1596,
      "ĠíĮ": 1597,
      "ever": 1598,
      "uc": 1599,
      "Ġëĵ±": 1600,
      "Ġpa": 1601,
      "ript": 1602,
      "Ġbel": 1603,
      ".com": 1604,
      "á»¯ng": 1605,
      "ì²´": 1606,
      "ê°ľ": 1607,
      "Ġbeing": 1608,
      "ential": 1609,
      "val": 1610,
      "ĠíĶ": 1611,
      "åĨ": 1612,
      "202": 1613,
      "Ġgener": 1614,
      "Ġsign": 1615,
      "chn": 1616,
      "Ġvá»Ľi": 1617,
      "å½": 1618,
      "cial": 1619,
      "ĠngÆ°á»Ŀi": 1620,
      "(\"": 1621,
      "à¹ĩ": 1622,
      "ĠëĦ": 1623,
      "erg": 1624,
      "ically": 1625,
      "Ġperson": 1626,
      "Ġend": 1627,
      "Ġclass": 1628,
      "io": 1629,
      "Ġed": 1630,
      "Ġcall": 1631,
      "Ġë§Ĳ": 1632,
      "Ġresp": 1633,
      "Ġprocess": 1634,
      "ãĤĵ": 1635,
      "Ġent": 1636,
      "ä¸Ń": 1637,
      "ature": 1638,
      "Ġ*": 1639,
      "Æ°á»Ľ": 1640,
      "Ġsur": 1641,
      "formation": 1642,
      "Ġtake": 1643,
      "ĠPro": 1644,
      "Ġafter": 1645,
      "ëĭ¨": 1646,
      "hed": 1647,
      "Ġstudents": 1648,
      "ts": 1649,
      "iá»ģu": 1650,
      "to": 1651,
      "Ġyears": 1652,
      "Ġplay": 1653,
      "ĠHow": 1654,
      "ê´Ģ": 1655,
      "Ġpol": 1656,
      "ĠëĶ": 1657,
      "íķ©ëĭĪëĭ¤": 1658,
      "à¸¸": 1659,
      "ìĸĳ": 1660,
      "ody": 1661,
      "Ġgra": 1662,
      "ìĪ": 1663,
      "iá»ĩn": 1664,
      "ÂłÂłÂłÂł": 1665,
      "Ġworld": 1666,
      "æķ": 1667,
      "ìĦł": 1668,
      "å¯": 1669,
      "Ġë°©": 1670,
      "____": 1671,
      "ward": 1672,
      "_l": 1673,
      "eng": 1674,
      "imes": 1675,
      "Ġì¡°": 1676,
      "Ġinte": 1677,
      "Ġpres": 1678,
      "Ġproble": 1679,
      "Ġê°Ļ": 1680,
      "ãģı": 1681,
      "Ġìĭł": 1682,
      "irect": 1683,
      "Ġdown": 1684,
      "}ĊĊ": 1685,
      "AR": 1686,
      "Ġins": 1687,
      "gan": 1688,
      "ving": 1689,
      "ì°¨": 1690,
      "Ġêµ¬": 1691,
      "ìĽĶ": 1692,
      "dir": 1693,
      "ident": 1694,
      "els": 1695,
      "Ġdec": 1696,
      "ruct": 1697,
      "Ġeffect": 1698,
      "Ġfact": 1699,
      "Ġown": 1700,
      "ĠĠĠĠĠ": 1701,
      "]Ċ": 1702,
      "Ġshow": 1703,
      "ars": 1704,
      "Ġdist": 1705,
      "ives": 1706,
      "----------------": 1707,
      "Ġthose": 1708,
      "ìķĪ": 1709,
      "ĠnhÆ°": 1710,
      "Ġwhile": 1711,
      "ëĭ¹": 1712,
      "ëĬ¥": 1713,
      "ĠI'": 1714,
      "Ġlife": 1715,
      "ĠìķĪ": 1716,
      "Ġext": 1717,
      "Ġnhá»¯ng": 1718,
      "éģ": 1719,
      "....": 1720,
      "ern": 1721,
      ".p": 1722,
      "str": 1723,
      "íķĺê²Į": 1724,
      "ets": 1725,
      "Ġmed": 1726,
      "ists": 1727,
      "###": 1728,
      "Ġìļ°": 1729,
      "://": 1730,
      "Ġê´Ģ": 1731,
      "áº£i": 1732,
      "Ġwater": 1733,
      "å¿": 1734,
      "========": 1735,
      "_m": 1736,
      "akes": 1737,
      "Ġcomple": 1738,
      "ource": 1739,
      "ox": 1740,
      "ave": 1741,
      "Ġdisc": 1742,
      "ëĶ": 1743,
      "rep": 1744,
      "ond": 1745,
      "Ġ==": 1746,
      "è§": 1747,
      "ë²ķ": 1748,
      "24": 1749,
      "ìŀ¬": 1750,
      "ì¤": 1751,
      "sw": 1752,
      "(self": 1753,
      "Ġquest": 1754,
      "à¸¹": 1755,
      "EN": 1756,
      "Ġsom": 1757,
      "vent": 1758,
      "Ġ\"${": 1759,
      "Ġcor": 1760,
      "ew": 1761,
      "á»į": 1762,
      "ĠThey": 1763,
      "Ġë§İ": 1764,
      "Ġrun": 1765,
      "à¸Ĥ": 1766,
      "íĥĢ": 1767,
      "íĴ": 1768,
      "****": 1769,
      "inh": 1770,
      "ĠFor": 1771,
      "ëĲľ": 1772,
      "âĢĻ": 1773,
      "Ġexpl": 1774,
      "ëįĺ": 1775,
      "DIR": 1776,
      "!ĊĊ": 1777,
      "sc": 1778,
      "Ġì¢ĭ": 1779,
      "ë°©": 1780,
      "Ġart": 1781,
      "iá»ĥ": 1782,
      "Ġcount": 1783,
      "ëĵ¤ìĿ´": 1784,
      "led": 1785,
      "Ġimportant": 1786,
      "Ġlocal": 1787,
      "Ġíĥ": 1788,
      "ìĹĲê²Į": 1789,
      "_c": 1790,
      "Ġdid": 1791,
      "åĮ": 1792,
      "any": 1793,
      "ĠTr": 1794,
      "ìłģìĿ¸": 1795,
      "ĠìĤ¬ëŀĮ": 1796,
      "oup": 1797,
      "íİ": 1798,
      "Ġdep": 1799,
      "ness": 1800,
      "rest": 1801,
      "Ġbefore": 1802,
      "ãħ": 1803,
      "ĥ½": 1804,
      "tle": 1805,
      "Ġgreat": 1806,
      "ited": 1807,
      "St": 1808,
      "Ġë¬´": 1809,
      "inal": 1810,
      "fi": 1811,
      "íķĺìĹ¬": 1812,
      "ìĹ°": 1813,
      "æŃ": 1814,
      "}/": 1815,
      "Æ°Æ¡": 1816,
      "be": 1817,
      "arm": 1818,
      "æ°": 1819,
      "SE": 1820,
      "æĬ": 1821,
      "Ġgu": 1822,
      "Ġcar": 1823,
      "Ġaut": 1824,
      "Ġschool": 1825,
      "Ġnow": 1826,
      "å±": 1827,
      "ì¡": 1828,
      "ung": 1829,
      "ology": 1830,
      "def": 1831,
      "Ġhand": 1832,
      "Ãłng": 1833,
      "ural": 1834,
      "ì¤ĳ": 1835,
      "ety": 1836,
      "ĠëıĦ": 1837,
      "Ġop": 1838,
      "Ġ{Ċ": 1839,
      "ĠAnd": 1840,
      "Ġopt": 1841,
      "ator": 1842,
      "iÃªn": 1843,
      "tt": 1844,
      "iness": 1845,
      "Ġlist": 1846,
      "_P": 1847,
      "ä¸Ĭ": 1848,
      "ìŀĳ": 1849,
      "ìħ": 1850,
      "Ġmon": 1851,
      "Ġmain": 1852,
      "ven": 1853,
      "Ġserv": 1854,
      "íĺ¸": 1855,
      "Ġaw": 1856,
      "ized": 1857,
      "Ġunderstand": 1858,
      "vir": 1859,
      "ĠÄĲ": 1860,
      "Æ°á»Ŀng": 1861,
      "day": 1862,
      "Ġfound": 1863,
      "ĳľ": 1864,
      "Ġthá»ĥ": 1865,
      "Ġngh": 1866,
      "èĩ": 1867,
      "ë£Į": 1868,
      "ĠëįĶ": 1869,
      "èµ": 1870,
      "Ġav": 1871,
      "Ġboth": 1872,
      "Ġincre": 1873,
      "ethod": 1874,
      "Å©": 1875,
      "Ġtechn": 1876,
      "Ġìĺģ": 1877,
      "Ã´i": 1878,
      "DE": 1879,
      "Ġbuild": 1880,
      "ìĹĪëĭ¤": 1881,
      "ants": 1882,
      "ĠCom": 1883,
      "ality": 1884,
      "ases": 1885,
      "Ġmat": 1886,
      "ute": 1887,
      "Ġear": 1888,
      "ĠìķĮ": 1889,
      "ë¥¸": 1890,
      "Ġprint": 1891,
      "ection": 1892,
      ".t": 1893,
      "rain": 1894,
      "Ġinformation": 1895,
      "Ġprogram": 1896,
      "Ġsoc": 1897,
      "çľ": 1898,
      "Ġser": 1899,
      "ĠÂł": 1900,
      "Ġday": 1901,
      "à¸Ĺà¸µà¹Ī": 1902,
      "ĠìĦ¸": 1903,
      "Ãłnh": 1904,
      "ror": 1905,
      "Ġíģ": 1906,
      "ional": 1907,
      "à¹Īà¸²à¸": 1908,
      "ĠìĹ°": 1909,
      "ivid": 1910,
      "ìĿ´ëĿ¼": 1911,
      "ank": 1912,
      "ĠìĺĪ": 1913,
      "-s": 1914,
      "ather": 1915,
      "Ġlevel": 1916,
      "Ġlead": 1917,
      "ç§": 1918,
      "ĠAl": 1919,
      "ĠEx": 1920,
      "Ġcommun": 1921,
      "æĹ¥": 1922,
      "ĠìĬ¤": 1923,
      "ify": 1924,
      "This": 1925,
      "Ġvalue": 1926,
      "ëª¨": 1927,
      "íķĻ": 1928,
      "ĠÄĳá»ĥ": 1929,
      "á»ĩ": 1930,
      "()Ċ": 1931,
      "Ġfam": 1932,
      "}\"": 1933,
      "Ġho": 1934,
      "íĹ": 1935,
      "áº£n": 1936,
      "FI": 1937,
      "Ġrep": 1938,
      "éĻ": 1939,
      "Ã¡ch": 1940,
      "áº§u": 1941,
      "Ġelse": 1942,
      "bs": 1943,
      "ĠìĿĺ": 1944,
      "ãĤ¹": 1945,
      "ale": 1946,
      "ĠìĦł": 1947,
      "ier": 1948,
      "íħ": 1949,
      "Ġê±°": 1950,
      "################": 1951,
      "log": 1952,
      "ĠìĦľ": 1953,
      "40": 1954,
      "å¹´": 1955,
      "Ġprovid": 1956,
      "au": 1957,
      "Ġë°ľ": 1958,
      "eld": 1959,
      "for": 1960,
      "ism": 1961,
      "íģ¬": 1962,
      "à¸³": 1963,
      "hy": 1964,
      "Ġlit": 1965,
      "ince": 1966,
      "Ġref": 1967,
      "Ġless": 1968,
      "ĠÄĳÃ£": 1969,
      "µľ": 1970,
      "An": 1971,
      "Ġsaid": 1972,
      "Æ°Æ¡ng": 1973,
      "Ġë¯¸": 1974,
      "Æ°á»Ľc": 1975,
      "Ġsupport": 1976,
      "áº¿n": 1977,
      "Ġpartic": 1978,
      "cul": 1979,
      "Ã¢y": 1980,
      "Ġwrit": 1981,
      "à¹Į": 1982,
      "mp": 1983,
      "bers": 1984,
      "ë¡Ŀ": 1985,
      "22": 1986,
      "ê±´": 1987,
      "Ġë¶Ħ": 1988,
      "Ã©": 1989,
      "à¸ŀ": 1990,
      "Ġëĵ¤": 1991,
      "Ġrese": 1992,
      "Ġexample": 1993,
      "Ġcle": 1994,
      "ëłĪ": 1995,
      "æĶ": 1996,
      ".\"": 1997,
      "ĠíĨµ": 1998,
      "Ġname": 1999,
      "Ġeas": 2000,
      "ames": 2001,
      "ëĬĶëį°": 2002,
      "Ġê°ľ": 2003,
      "ìłĲ": 2004,
      "½Ķ": 2005,
      "ãģį": 2006,
      "Ġaround": 2007,
      "íķľëĭ¤": 2008,
      "Ġbook": 2009,
      "ãģ£ãģ¦": 2010,
      "ãĥ¼ãĥ": 2011,
      "ĠPh": 2012,
      "Ġappro": 2013,
      "Ġchildren": 2014,
      "Ãłi": 2015,
      "Ġhim": 2016,
      "alk": 2017,
      "æł": 2018,
      "ĠëıĻ": 2019,
      "íĸĪ": 2020,
      "ìĭ¬": 2021,
      "êµĲ": 2022,
      "à¸Ĭ": 2023,
      "Ġsay": 2024,
      "dition": 2025,
      "ner": 2026,
      "oug": 2027,
      "ãģĤ": 2028,
      ",\"": 2029,
      "ĠìĦ±": 2030,
      "Ġfil": 2031,
      "Ġagain": 2032,
      "Ġallow": 2033,
      "cent": 2034,
      "'Ċ": 2035,
      "ĠAs": 2036,
      "RO": 2037,
      "ãģķ": 2038,
      "Ġcare": 2039,
      "ĺĲ": 2040,
      "par": 2041,
      "iven": 2042,
      "Ġchar": 2043,
      "Ġbest": 2044,
      "view": 2045,
      "ves": 2046,
      "Ġmade": 2047,
      "Ġstate": 2048,
      "Ġgl": 2049,
      "rence": 2050,
      "hip": 2051,
      "ublic": 2052,
      "åĩº": 2053,
      "='": 2054,
      "Ãłn": 2055,
      "Ġtry": 2056,
      "ĠÄĳá»Ļ": 2057,
      "ìĹĲëĬĶ": 2058,
      "áº½": 2059,
      "-b": 2060,
      "iqu": 2061,
      "Ġposs": 2062,
      "What": 2063,
      "åĳ": 2064,
      "Ġpar": 2065,
      "Ġbre": 2066,
      "Ġimp": 2067,
      "Ġbus": 2068,
      "ãģ¾ãģĻ": 2069,
      "ë§¤": 2070,
      "Ġcent": 2071,
      "ìĺģ": 2072,
      "Ġdesign": 2073,
      "Ġpat": 2074,
      "ìķĺ": 2075,
      "æ³": 2076,
      "ãģĹãģ¦": 2077,
      "Ġhum": 2078,
      "Ġë©": 2079,
      "à¸ģà¸²à¸£": 2080,
      "ìĹŃ": 2081,
      "oss": 2082,
      "AN": 2083,
      "Ġlo": 2084,
      "ĠìĤ¬ìļ©": 2085,
      "_dir": 2086,
      "Ġbáº¡n": 2087,
      "Ġmem": 2088,
      "éĿ": 2089,
      "gg": 2090,
      "ved": 2091,
      "Ġcal": 2092,
      "á»ĵ": 2093,
      "Ġmust": 2094,
      "ì¢": 2095,
      "çİ": 2096,
      "ĠBut": 2097,
      "æĥ": 2098,
      "iáº¿t": 2099,
      "cond": 2100,
      "Ġëħ": 2101,
      "ä¿": 2102,
      "Ġë¬¸": 2103,
      "ething": 2104,
      "Ġsmall": 2105,
      "py": 2106,
      "ãģ§ãģĻ": 2107,
      "ider": 2108,
      "æĦ": 2109,
      "åĽ½": 2110,
      "Ġline": 2111,
      "ãģł": 2112,
      "Ġë¨": 2113,
      ".c": 2114,
      "Ġthings": 2115,
      "from": 2116,
      "Ġvis": 2117,
      "comm": 2118,
      "Ġmark": 2119,
      "Ġcour": 2120,
      "Ġstill": 2121,
      "ë²Ī": 2122,
      "Ġgrow": 2123,
      "AL": 2124,
      "ted": 2125,
      "Ġpower": 2126,
      "Ġduring": 2127,
      "åĴ": 2128,
      "lib": 2129,
      "It": 2130,
      "ien": 2131,
      "íĤ": 2132,
      "64": 2133,
      "Ġpass": 2134,
      "Ġfunction": 2135,
      "ìĨį": 2136,
      "ought": 2137,
      "?Ċ": 2138,
      "IT": 2139,
      "ote": 2140,
      "Ġhere": 2141,
      "text": 2142,
      "Ġca": 2143,
      "íĴĪ": 2144,
      "CH": 2145,
      "60": 2146,
      "ì¶ľ": 2147,
      "ãĤ¤": 2148,
      "Ġprof": 2149,
      "Ġactiv": 2150,
      "ways": 2151,
      "ired": 2152,
      "ĠíĬ": 2153,
      "ION": 2154,
      "ĠnÃły": 2155,
      "ãģĹãģŁ": 2156,
      "net": 2157,
      "Ġreal": 2158,
      "ĠëĨ": 2159,
      "Ġplan": 2160,
      "ìŀĪ": 2161,
      "23": 2162,
      "çĶŁ": 2163,
      "viron": 2164,
      "ëĭĺ": 2165,
      "Ġpop": 2166,
      "ateg": 2167,
      "Ġlearn": 2168,
      "æĪĳ": 2169,
      "ì²ĺ": 2170,
      "Ġide": 2171,
      "ĠThere": 2172,
      "ĠWhat": 2173,
      "Ġreally": 2174,
      "set": 2175,
      "ìłĢ": 2176,
      "ê²ł": 2177,
      "Ġoften": 2178,
      "Ŀi": 2179,
      "Ġtop": 2180,
      "Ġê·": 2181,
      "Ġhapp": 2182,
      "meric": 2183,
      "add": 2184,
      "Ġz": 2185,
      "ĠëĬ": 2186,
      "Ġess": 2187,
      "è´": 2188,
      "ids": 2189,
      "ê»": 2190,
      "pect": 2191,
      "Ġmean": 2192,
      "íĨµ": 2193,
      "ëĵł": 2194,
      "ital": 2195,
      "hes": 2196,
      "ense": 2197,
      "Ġinstall": 2198,
      "over": 2199,
      "Ġë§¤": 2200,
      "Ġproduct": 2201,
      "Ġsomething": 2202,
      "ask": 2203,
      "Ġmight": 2204,
      "Ġfeel": 2205,
      "á»Ń": 2206,
      "Ġkeep": 2207,
      "åī": 2208,
      "ê²ĥ": 2209,
      "ĠAr": 2210,
      "oot": 2211,
      "Ġdirect": 2212,
      "ason": 2213,
      "Ġconst": 2214,
      "æİ": 2215,
      "ead": 2216,
      "ÃŃnh": 2217,
      "ëŁ°": 2218,
      "ĠX": 2219,
      "åİ": 2220,
      "uss": 2221,
      "åĵ": 2222,
      "áºŃt": 2223,
      "ĠìĽĲ": 2224,
      "of": 2225,
      "ìłģìľ¼ë¡ľ": 2226,
      "kg": 2227,
      "))": 2228,
      "Ġadv": 2229,
      "ë°ĺ": 2230,
      "ivers": 2231,
      "áºŃn": 2232,
      "ee": 2233,
      "yn": 2234,
      "Ĩł": 2235,
      "Ã¹ng": 2236,
      "Ġfile": 2237,
      "à¹Ĥ": 2238,
      "ined": 2239,
      "çĶ¨": 2240,
      "á»ĳi": 2241,
      ".m": 2242,
      "Ġìĭ¤": 2243,
      "dev": 2244,
      "æĻ": 2245,
      "Ġfood": 2246,
      "ccess": 2247,
      "çº": 2248,
      "ë£¨": 2249,
      "ai": 2250,
      "Ġlot": 2251,
      "ID": 2252,
      "NA": 2253,
      "Ġê²ĥìĿ´": 2254,
      "Ġì¦": 2255,
      ".d": 2256,
      "Ġbetter": 2257,
      "ah": 2258,
      "ê¹Įì§Ģ": 2259,
      "rol": 2260,
      "Å©ng": 2261,
      "Ġcreate": 2262,
      "Ġgoing": 2263,
      "ä¼ļ": 2264,
      "itive": 2265,
      "az": 2266,
      "ffic": 2267,
      "less": 2268,
      "ray": 2269,
      "If": 2270,
      "Ġpract": 2271,
      "Ġbody": 2272,
      "Ġwithout": 2273,
      "è¡Į": 2274,
      "Ġíķł": 2275,
      "ĠSo": 2276,
      "Ġfin": 2277,
      "íķ´ìĦľ": 2278,
      "ault": 2279,
      "ë¯¼": 2280,
      "á»ķ": 2281,
      "Ġlog": 2282,
      "ë°ľ": 2283,
      "íķĺê¸°": 2284,
      "air": 2285,
      "ĠTo": 2286,
      "ãĥĪ": 2287,
      ".g": 2288,
      "Ġmus": 2289,
      "']": 2290,
      "ross": 2291,
      "Ġìŀ¥": 2292,
      "Ġtyp": 2293,
      "Æ¡n": 2294,
      "ument": 2295,
      "Ġhome": 2296,
      "´Ī": 2297,
      "Ġcontin": 2298,
      "éĽ": 2299,
      "ä»¥": 2300,
      "Ġmethod": 2301,
      "ĠìłĢ": 2302,
      "Ġtype": 2303,
      "Ġwhy": 2304,
      "ë¦Ħ": 2305,
      "åĴĮ": 2306,
      "Ġê¹": 2307,
      "Ġele": 2308,
      "Ġchange": 2309,
      "ĠëĶ°": 2310,
      "How": 2311,
      "ëĳĲ": 2312,
      "Ġtoo": 2313,
      "Ġmet": 2314,
      "ê²©": 2315,
      "-m": 2316,
      "ì²ľ": 2317,
      "íĶĦ": 2318,
      "âĢĶ": 2319,
      "Ġeng": 2320,
      "=${": 2321,
      "ì²Ń": 2322,
      "ustom": 2323,
      "Ġì§Ħ": 2324,
      "Ġtem": 2325,
      "Ġyou're": 2326,
      "Ġcurrent": 2327,
      "thing": 2328,
      "br": 2329,
      "Ġsáº½": 2330,
      "ains": 2331,
      "anh": 2332,
      "ability": 2333,
      "ĠAd": 2334,
      "print": 2335,
      "raph": 2336,
      "Äĥng": 2337,
      "ĠQu": 2338,
      "ë²Ħ": 2339,
      "ams": 2340,
      "['": 2341,
      "áº¿t": 2342,
      "íĭ": 2343,
      "çĲ": 2344,
      "è¦ģ": 2345,
      "ends": 2346,
      "file": 2347,
      "Ġkhi": 2348,
      "ills": 2349,
      "land": 2350,
      "lease": 2351,
      "rite": 2352,
      "Ġthree": 2353,
      "ared": 2354,
      "ww": 2355,
      "Ã½": 2356,
      "ĠAmeric": 2357,
      "ìŀĦ": 2358,
      "cur": 2359,
      "ĠÄĳÃ³": 2360,
      "Ġ\"\"": 2361,
      "á»ĳng": 2362,
      "ì§Ī": 2363,
      "Ġ!": 2364,
      "ëįĶ": 2365,
      "Ġhist": 2366,
      "Ġfr": 2367,
      "ìķ½": 2368,
      "à¸²à¸¡": 2369,
      "ĠìĥĿê°ģ": 2370,
      "ization": 2371,
      "Ġkey": 2372,
      "Ġplace": 2373,
      "ĠÄĳáº¿n": 2374,
      "Ġê±´": 2375,
      "ouse": 2376,
      "Ġì¤": 2377,
      "Ġsl": 2378,
      "Ġstand": 2379,
      "Ġë¹": 2380,
      "amp": 2381,
      "éĹ": 2382,
      "28": 2383,
      "Ġorgan": 2384,
      "ë©´ìĦľ": 2385,
      "cript": 2386,
      "ret": 2387,
      "ĠĠĠĠĠĠĠĠĠĠĠĠĠĠĠĠĠĠĠ": 2388,
      "ê°ķ": 2389,
      "Ġpost": 2390,
      "21": 2391,
      "fl": 2392,
      "ç¾": 2393,
      "33": 2394,
      "ergy": 2395,
      "vironment": 2396,
      "Ġinterest": 2397,
      "tr": 2398,
      "ãĥĥ": 2399,
      "Ġcommon": 2400,
      "Ġbusiness": 2401,
      "æµ": 2402,
      "...ĊĊ": 2403,
      "Ġpur": 2404,
      "Ch": 2405,
      "ividual": 2406,
      "Ġmult": 2407,
      "Ġopen": 2408,
      "íķ¨": 2409,
      "nect": 2410,
      "Ġfew": 2411,
      "ìĺĢ": 2412,
      "ë°Ķ": 2413,
      "íĺķ": 2414,
      "æľ¬": 2415,
      "Ġë¶Ī": 2416,
      "Ġê³Ħ": 2417,
      "Ġiss": 2418,
      "Ġ,": 2419,
      "ĠcÅ©ng": 2420,
      "angu": 2421,
      "aut": 2422,
      "Ġìµľ": 2423,
      "itions": 2424,
      "$$": 2425,
      "ols": 2426,
      "/s": 2427,
      "atic": 2428,
      "æ¯": 2429,
      "not": 2430,
      "æ²": 2431,
      "ãģĿ": 2432,
      "Ī¬": 2433,
      "Ġê²°": 2434,
      "áº©": 2435,
      "ape": 2436,
      "27": 2437,
      "é¢": 2438,
      "Ġchang": 2439,
      "ples": 2440,
      "Ġproper": 2441,
      "ĠSh": 2442,
      "ãĤĪ": 2443,
      "à¸²à¸ģ": 2444,
      "ì¦Ŀ": 2445,
      "Ġfollowing": 2446,
      "ĠëĪ": 2447,
      "ĠCl": 2448,
      "Ġstudy": 2449,
      "Ġë°Ľ": 2450,
      "ë³¸": 2451,
      "Ġ];": 2452,
      "cle": 2453,
      "Ġdev": 2454,
      "_b": 2455,
      "Ġbeh": 2456,
      "èĩª": 2457,
      "áº¥y": 2458,
      "íĮĮ": 2459,
      "Ġcheck": 2460,
      "')Ċ": 2461,
      "ê°Ĳ": 2462,
      "Ġlá»": 2463,
      "ĠìĪ": 2464,
      "ë¦¬ê³ł": 2465,
      "ì¤Ģ": 2466,
      "Ġpot": 2467,
      "ãĢĮ": 2468,
      "è¨": 2469,
      "Ġìŀĳ": 2470,
      "tain": 2471,
      "èī": 2472,
      "à¸Ķà¹ī": 2473,
      "á»ī": 2474,
      "ton": 2475,
      "ision": 2476,
      "Ġansw": 2477,
      "Ġtá»«": 2478,
      "ç½": 2479,
      ".\"ĊĊ": 2480,
      "li": 2481,
      "íĸĪëĭ¤": 2482,
      "æĿ¥": 2483,
      "Ġê°Ĳ": 2484,
      "à¸±à¸ļ": 2485,
      "Ġìłģ": 2486,
      "Ġcase": 2487,
      "htt": 2488,
      "acter": 2489,
      "æŀ": 2490,
      "ertain": 2491,
      "¶Į": 2492,
      "æĮ": 2493,
      "Ã¡i": 2494,
      "Ġbo": 2495,
      "ä¸ĭ": 2496,
      "ining": 2497,
      "ãĢį": 2498,
      "lish": 2499,
      "ats": 2500,
      "Ġgiá»": 2501,
      "åĪĨ": 2502,
      "ëĶĶ": 2503,
      "gin": 2504,
      "ë¸": 2505,
      "å¦": 2506,
      "ãģĳ": 2507,
      "Ġorder": 2508,
      "Ġanother": 2509,
      "Ġcáº£": 2510,
      "aj": 2511,
      "ê¸ī": 2512,
      "ĠCon": 2513,
      "Ġlast": 2514,
      "Ġprovide": 2515,
      "ploy": 2516,
      "ä¸ª": 2517,
      "Ġproblem": 2518,
      "raw": 2519,
      "ger": 2520,
      "Ġeduc": 2521,
      "cing": 2522,
      "ãĥ»": 2523,
      "-d": 2524,
      "requ": 2525,
      "Ġalways": 2526,
      "ãģĬ": 2527,
      "me": 2528,
      "ĠmÃł": 2529,
      "ì§ģ": 2530,
      "áº±": 2531,
      "Ġprot": 2532,
      "AS": 2533,
      "ì¸": 2534,
      "ä¸º": 2535,
      "LO": 2536,
      "ems": 2537,
      "íĹĺ": 2538,
      "íı¬": 2539,
      "Ġë°°": 2540,
      "Ġ;": 2541,
      "ources": 2542,
      "Ġproject": 2543,
      "ĠëĺĲ": 2544,
      "Ġperform": 2545,
      "ĠíĻķ": 2546,
      "iving": 2547,
      "à¸±à¸Ļ": 2548,
      "Ġ&&": 2549,
      "Ġindividual": 2550,
      "ç«": 2551,
      "Ġcreat": 2552,
      "Ġë°ĺ": 2553,
      "-c": 2554,
      "80": 2555,
      "Ġlight": 2556,
      "Ġìŀħ": 2557,
      "Ġsure": 2558,
      "ately": 2559,
      "ëŀĳ": 2560,
      "Ġben": 2561,
      "Ġelect": 2562,
      "Ġ)": 2563,
      "Ġimpro": 2564,
      "load": 2565,
      "ä½ľ": 2566,
      "ê»ĺ": 2567,
      "ìļ¸": 2568,
      "Ġmá»": 2569,
      "Ġbas": 2570,
      "æĭ": 2571,
      "ĠlÃłm": 2572,
      "Ġsit": 2573,
      "Ġresearch": 2574,
      "ëĦ¤": 2575,
      "ron": 2576,
      "æĸ¹": 2577,
      "ëĭ¤ëĬĶ": 2578,
      "Ġëĭ¨": 2579,
      "omen": 2580,
      "ëĸ": 2581,
      "iáº¿n": 2582,
      "alse": 2583,
      "config": 2584,
      "å¥³": 2585,
      "ä¾": 2586,
      "Ġanal": 2587,
      "import": 2588,
      "ë¦°": 2589,
      "min": 2590,
      "Ġmeans": 2591,
      "ĠíĽĦ": 2592,
      "Ġopp": 2593,
      "Ġgiven": 2594,
      "Ġíİ": 2595,
      "åŃĲ": 2596,
      "Ġcost": 2597,
      "AC": 2598,
      "ering": 2599,
      "Ġê²½ìļ°": 2600,
      "Ġredu": 2601,
      "èĥ½": 2602,
      "ĠìĦ¤": 2603,
      "arge": 2604,
      "à¹Īà¸Ń": 2605,
      "è½": 2606,
      "Ġincluding": 2607,
      "Ġve": 2608,
      "oh": 2609,
      "åĪ°": 2610,
      "Ġì¶Ķ": 2611,
      "Ġris": 2612,
      "Ġê°ķ": 2613,
      "Ġobject": 2614,
      "oney": 2615,
      "ĠcÃ´ng": 2616,
      "Ġvá»ģ": 2617,
      "à¹ģà¸¥": 2618,
      "Ġhá»į": 2619,
      "Ġtext": 2620,
      "Ġput": 2621,
      "oid": 2622,
      "26": 2623,
      "-f": 2624,
      "date": 2625,
      "Ġnhiá»ģu": 2626,
      "ë³µ": 2627,
      "íĳľ": 2628,
      "Ġold": 2629,
      "Ġ%": 2630,
      "Ġable": 2631,
      "ively": 2632,
      "Ġest": 2633,
      "aster": 2634,
      "Ġwee": 2635,
      "è¿Ļ": 2636,
      "rc": 2637,
      "Ġexperience": 2638,
      "Ġer": 2639,
      "Ġbelie": 2640,
      "arget": 2641,
      "Ġarg": 2642,
      "Ġë¬¼": 2643,
      "29": 2644,
      "Ġdel": 2645,
      "Ġhead": 2646,
      "Ã¡t": 2647,
      "ĠíķĦ": 2648,
      "å°ı": 2649,
      "type": 2650,
      "à¸£à¸°": 2651,
      "ann": 2652,
      "Ġcalled": 2653,
      "-p": 2654,
      "Ġrange": 2655,
      "Ġlet": 2656,
      "Ġhard": 2657,
      "ĠDe": 2658,
      "thon": 2659,
      "æĪĲ": 2660,
      "We": 2661,
      "ium": 2662,
      "ule": 2663,
      "ĠSe": 2664,
      "reen": 2665,
      "ëĤľ": 2666,
      "Ġmaking": 2667,
      "ãģ£ãģŁ": 2668,
      "AG": 2669,
      "æĽ": 2670,
      "çĻ": 2671,
      "íĽĦ": 2672,
      "ìĶ": 2673,
      "ified": 2674,
      "ables": 2675,
      "Ġlearning": 2676,
      "Ġláº¡i": 2677,
      "ĠëķĮë¬¸": 2678,
      "åĢ": 2679,
      "Ġident": 2680,
      "Tr": 2681,
      "ê²°": 2682,
      "Ġoper": 2683,
      "ĠOn": 2684,
      "rect": 2685,
      "ories": 2686,
      "Ġë°ı": 2687,
      "è¾": 2688,
      "Ġìŀĺ": 2689,
      "ĠWh": 2690,
      "ëĵ¤ìĿĢ": 2691,
      "git": 2692,
      "Ġsecond": 2693,
      "Ġfree": 2694,
      "ëłĩ": 2695,
      "ĠThese": 2696,
      "You": 2697,
      "ĠvÃło": 2698,
      "_DIR": 2699,
      "orn": 2700,
      "Ġu": 2701,
      "Ġdone": 2702,
      "Ġdem": 2703,
      "ì¢ħ": 2704,
      "],": 2705,
      "ĠI'm": 2706,
      "Ġì°¨": 2707,
      "mb": 2708,
      "à¹Ģà¸Ľ": 2709,
      "aterial": 2710,
      "å®¶": 2711,
      "íĥĿ": 2712,
      "Ġá»Ł": 2713,
      "=$(": 2714,
      "Ġcome": 2715,
      "Ġíķ¨": 2716,
      "ior": 2717,
      "ĠIs": 2718,
      "Ġdá»¥": 2719,
      "son": 2720,
      "ĠíķĺëĤĺ": 2721,
      "ĠWhen": 2722,
      "CO": 2723,
      "Ġ_": 2724,
      "bo": 2725,
      "Ġwithin": 2726,
      "Ġgroup": 2727,
      "Ġì±": 2728,
      "ished": 2729,
      "play": 2730,
      "éĸ": 2731,
      "æĸ°": 2732,
      "ention": 2733,
      "Ġ`": 2734,
      "Ġstep": 2735,
      "ocus": 2736,
      "Ġìļ°ë¦¬": 2737,
      "\":": 2738,
      "HO": 2739,
      "Ġpay": 2740,
      "ulation": 2741,
      "'ll": 2742,
      "ĠIt's": 2743,
      "ëĭ¤ê³ł": 2744,
      "Ġworks": 2745,
      "Ġmeas": 2746,
      "Ġpo": 2747,
      "ĠìļĶ": 2748,
      "ì¹´": 2749,
      ".sh": 2750,
      "hers": 2751,
      "pkg": 2752,
      "Ġìŀ¬": 2753,
      "MP": 2754,
      "Ġíı¬": 2755,
      "Ġocc": 2756,
      "ìĪł": 2757,
      "_name": 2758,
      "ailable": 2759,
      "Ġsocial": 2760,
      "Ġtreat": 2761,
      "Ġmodel": 2762,
      "inst": 2763,
      "Ġmove": 2764,
      "oci": 2765,
      "ì§ĳ": 2766,
      "åı¯": 2767,
      "Ġenergy": 2768,
      "iá»ĩt": 2769,
      "Ġphys": 2770,
      "å¤ļ": 2771,
      "Ġinc": 2772,
      "ĠnÃ³": 2773,
      "32": 2774,
      "Ġpresent": 2775,
      "!!": 2776,
      "ĠëĤ¨": 2777,
      "ĠSc": 2778,
      "Ġmov": 2779,
      "Ġinclude": 2780,
      "Ġenvironment": 2781,
      "ĠíĺĦ": 2782,
      "åľ°": 2783,
      "ATH": 2784,
      "Ġgive": 2785,
      "Re": 2786,
      "Ġnon": 2787,
      "ĠíĿ": 2788,
      "Ġpri": 2789,
      "æ¬": 2790,
      "Ãºng": 2791,
      "ãĤ¯": 2792,
      "ral": 2793,
      "Ġes": 2794,
      "à¸¶": 2795,
      "ĢìĿ´": 2796,
      "Ġbased": 2797,
      "ush": 2798,
      "á»©c": 2799,
      "UT": 2800,
      "äºĭ": 2801,
      "word": 2802,
      "Ġëħ¸": 2803,
      "é«": 2804,
      "çŃ": 2805,
      "Ġgame": 2806,
      "ëĵ±": 2807,
      "ìĽĮ": 2808,
      "Ġturn": 2809,
      "Ġíķ©ëĭĪëĭ¤": 2810,
      "à¸²à¸¢": 2811,
      "íĤ¤": 2812,
      "Ġview": 2813,
      "usr": 2814,
      "ml": 2815,
      "ards": 2816,
      "Ġpossible": 2817,
      "Ġcap": 2818,
      "íĺĦ": 2819,
      "':": 2820,
      "Ġcr": 2821,
      "ĠEng": 2822,
      "ĠíĬ¹": 2823,
      "hor": 2824,
      "rop": 2825,
      "Ġthu": 2826,
      "íĥľ": 2827,
      "ĠíķĺëĬĶ": 2828,
      "ìłĪ": 2829,
      "ĠPl": 2830,
      "Ġknown": 2831,
      "ë¶ĢíĦ°": 2832,
      "ĠëĳĲ": 2833,
      "OT": 2834,
      "æ´": 2835,
      "Ġtimes": 2836,
      "Ġsuccess": 2837,
      "Ġaccess": 2838,
      "ë§Ĳ": 2839,
      "Ġ~": 2840,
      "key": 2841,
      "Ġdri": 2842,
      "ìĦĿ": 2843,
      "uild": 2844,
      "UR": 2845,
      "IC": 2846,
      "ĠNew": 2847,
      "Ġcourse": 2848,
      "Ġ[[": 2849,
      "do": 2850,
      "æ¸": 2851,
      "))Ċ": 2852,
      "Ġquestion": 2853,
      "ik": 2854,
      "ìĦ¤": 2855,
      "Ġsá»±": 2856,
      "man": 2857,
      "]ĊĊ": 2858,
      "Ġask": 2859,
      "osed": 2860,
      "anguage": 2861,
      "ĠĊ": 2862,
      "Ġens": 2863,
      "Ã¡n": 2864,
      "íĶ¼": 2865,
      "Ġarea": 2866,
      "Ġhuman": 2867,
      "-t": 2868,
      "æĹ¶": 2869,
      "ency": 2870,
      "ling": 2871,
      "ope": 2872,
      "ĠìķĦëĭĪ": 2873,
      "ê·¼": 2874,
      "à¹ĩà¸Ļ": 2875,
      "ãĥ«": 2876,
      "Ġlittle": 2877,
      "ries": 2878,
      "à¸²à¸Ļ": 2879,
      "Ġcontrol": 2880,
      "iá»ĩc": 2881,
      "Äĥm": 2882,
      "ystem": 2883,
      "íķĺì§Ģ": 2884,
      "Ġprom": 2885,
      "íĨł": 2886,
      "orth": 2887,
      "ĠìĤ´": 2888,
      "icle": 2889,
      "90": 2890,
      "Ex": 2891,
      "ĠëĮĢíķľ": 2892,
      "Ġsince": 2893,
      "ãĥ©": 2894,
      "á»ĳc": 2895,
      "ë¨": 2896,
      "Ġuser": 2897,
      "á»Ļi": 2898,
      "Ġter": 2899,
      "Â·": 2900,
      "ength": 2901,
      "iod": 2902,
      "Ġnext": 2903,
      "ĠHowever": 2904,
      "eter": 2905,
      "Ġbenef": 2906,
      "und": 2907,
      "class": 2908,
      "·¨": 2909,
      "ç´": 2910,
      "Ġëĭ¹": 2911,
      "Ġcell": 2912,
      "ication": 2913,
      "opt": 2914,
      "ë´": 2915,
      "Ġmarket": 2916,
      "ãĥª": 2917,
      "icult": 2918,
      "new": 2919,
      "ãģªãģĦ": 2920,
      "til": 2921,
      "ably": 2922,
      "ember": 2923,
      "ental": 2924,
      "Ġsum": 2925,
      "âĢĿ": 2926,
      "áº«": 2927,
      "_n": 2928,
      "ëŀĢ": 2929,
      "Ġcult": 2930,
      "ression": 2931,
      "ä»ĸ": 2932,
      "Ġconf": 2933,
      "Ġpháº£i": 2934,
      "ES": 2935,
      "Ġcustom": 2936,
      "Ġvers": 2937,
      "æ±": 2938,
      "let": 2939,
      "Ġair": 2940,
      "ĠthÃ¬": 2941,
      "ring": 2942,
      "åħ¨": 2943,
      "rodu": 2944,
      "Ġlim": 2945,
      "ĠíĮĮ": 2946,
      "yle": 2947,
      "à¸ĸ": 2948,
      "Ġrest": 2949,
      "ending": 2950,
      "ì¼": 2951,
      "ches": 2952,
      "Ġspecific": 2953,
      "Ġhy": 2954,
      "ĠBe": 2955,
      "ĠNone": 2956,
      "Ġbecome": 2957,
      "çĤ": 2958,
      "ĠZ": 2959,
      "åŃ¦": 2960,
      "apt": 2961,
      "ĠtrÃªn": 2962,
      "Ġorig": 2963,
      "Ġnever": 2964,
      "Ġëį°": 2965,
      "iles": 2966,
      "ique": 2967,
      "Ġloc": 2968,
      "ĠÂłĠÂł": 2969,
      "Ġê³¼": 2970,
      "med": 2971,
      "Ġë³Ģ": 2972,
      "Ġmonth": 2973,
      "Ġëª»": 2974,
      "unction": 2975,
      "é¡": 2976,
      "Ġstre": 2977,
      "ortun": 2978,
      "ãģ©": 2979,
      "à¸·à¸Ń": 2980,
      "ç¾İ": 2981,
      "Ġneeds": 2982,
      "ê¸¸": 2983,
      "ëª©": 2984,
      "Ġfamily": 2985,
      "èĤ": 2986,
      "åĲĪ": 2987,
      "ĠêµŃ": 2988,
      "åŁ": 2989,
      "ëģ": 2990,
      "Ġpublic": 2991,
      "hether": 2992,
      "à¹īà¸Ļ": 2993,
      "Ġinvol": 2994,
      "45": 2995,
      "á»ģ": 2996,
      "35": 2997,
      "ume": 2998,
      "IP": 2999,
      "ances": 3000,
      "Ġjob": 3001,
      "ëĬĺ": 3002,
      "ëĥ": 3003,
      "Ġdr": 3004,
      "70": 3005,
      "Ġmaterial": 3006,
      "íĸ¥": 3007,
      "Ġlik": 3008,
      ".get": 3009,
      "Ġsw": 3010,
      "ìĸµ": 3011,
      "Ġgia": 3012,
      "Ġcir": 3013,
      "Ġdiff": 3014,
      "Ġaddition": 3015,
      "Ġbig": 3016,
      "Ġvol": 3017,
      "éĺ": 3018,
      "ma": 3019,
      "ĠThat": 3020,
      "Ġinvest": 3021,
      "_path": 3022,
      "Ġpain": 3023,
      "init": 3024,
      "áºŃp": 3025,
      "ĠEn": 3026,
      "Ġprob": 3027,
      "mod": 3028,
      "à¸ľ": 3029,
      "ips": 3030,
      "use": 3031,
      "_id": 3032,
      "ĠíĶ¼": 3033,
      "íĻĺ": 3034,
      "iá»ĩu": 3035,
      "Ġcomput": 3036,
      "\")Ċ": 3037,
      "mat": 3038,
      "Ġlib": 3039,
      "ë¥ĺ": 3040,
      "íķĺë©´": 3041,
      "Ġfocus": 3042,
      "user": 3043,
      "çĦ": 3044,
      "/b": 3045,
      "```": 3046,
      "Ġreport": 3047,
      "ording": 3048,
      "Ġconsider": 3049,
      "Ãło": 3050,
      "Ġmoney": 3051,
      "ļ¨": 3052,
      "à¹ĥà¸Ļ": 3053,
      "Ġdoesn't": 3054,
      "Ã¡ng": 3055,
      "Ãªu": 3056,
      "à¹Īà¸ĩ": 3057,
      ">Ċ": 3058,
      ",ĊĊ": 3059,
      "Ġchá»ī": 3060,
      "iversity": 3061,
      "conom": 3062,
      "ëŁ¼": 3063,
      "ides": 3064,
      "áº±ng": 3065,
      "ently": 3066,
      "Ġgen": 3067,
      ").ĊĊ": 3068,
      "ux": 3069,
      "Ġamount": 3070,
      "Ġthing": 3071,
      "åģ": 3072,
      "oms": 3073,
      "´ĳ": 3074,
      "Ġpath": 3075,
      "inc": 3076,
      "æı": 3077,
      "Ġavailable": 3078,
      "ãĤ¢": 3079,
      "99": 3080,
      "ither": 3081,
      "áº·c": 3082,
      "Ġ]]": 3083,
      "Ġë¨¹": 3084,
      "ours": 3085,
      "ware": 3086,
      "Ġinde": 3087,
      "ç¤": 3088,
      "ĠÄĳáº§u": 3089,
      "Ġsing": 3090,
      "ĠRes": 3091,
      "vious": 3092,
      "íĿ": 3093,
      "ë¹": 3094,
      "é«ĺ": 3095,
      "Ġet": 3096,
      "cer": 3097,
      "ilar": 3098,
      "Ġfri": 3099,
      "ëŁī": 3100,
      "Ġothers": 3101,
      "Ġkind": 3102,
      "aces": 3103,
      "face": 3104,
      "Ġgover": 3105,
      "idd": 3106,
      "Ã¡o": 3107,
      "resent": 3108,
      "Ġviá»ĩc": 3109,
      "Ġlarge": 3110,
      "Ġexam": 3111,
      "Ġnet": 3112,
      "Ġapplic": 3113,
      "ients": 3114,
      "Ġdá»¥ng": 3115,
      "ê¶Į": 3116,
      "âĢĵ": 3117,
      "ĠêµĲ": 3118,
      "é£": 3119,
      "ãģ¡": 3120,
      "ì½Ķ": 3121,
      "Ġanswer": 3122,
      "Ã²n": 3123,
      "Ġactually": 3124,
      "åīį": 3125,
      "ìł¸": 3126,
      "ajor": 3127,
      "ì±": 3128,
      "NAME": 3129,
      "Ġbá»ĭ": 3130,
      "Ġlaw": 3131,
      "CT": 3132,
      "éĥ": 3133,
      "Ġíķľëĭ¤": 3134,
      "Ġhig": 3135,
      "ê¸°ë¥¼": 3136,
      "ET": 3137,
      "Ġcalcul": 3138,
      "à¹Ħà¸Ķà¹ī": 3139,
      "Ġlow": 3140,
      "çĲĨ": 3141,
      "Ġnat": 3142,
      "ser": 3143,
      "ots": 3144,
      "ìĿ´ëĤĺ": 3145,
      "Ġsignific": 3146,
      "crib": 3147,
      "Ġleg": 3148,
      "ĠÄĳá»ĭ": 3149,
      "å°±": 3150,
      "åıĳ": 3151,
      "=\"$": 3152,
      "ÃŃch": 3153,
      "Ġëĵ¤ìĸ´": 3154,
      "wh": 3155,
      "Ġdeterm": 3156,
      "Ġpotential": 3157,
      "ĠíĶĦ": 3158,
      "Ġcertain": 3159,
      "Ä©": 3160,
      "ãĤĦ": 3161,
      "Ġspace": 3162,
      "Ġmakes": 3163,
      "Ġland": 3164,
      "ls": 3165,
      "Ġdevelopment": 3166,
      "olution": 3167,
      "AP": 3168,
      "To": 3169,
      "Ġtrue": 3170,
      "VER": 3171,
      "outh": 3172,
      "_S": 3173,
      "Ġparent": 3174,
      "Ġenc": 3175,
      "rem": 3176,
      "Ġcaus": 3177,
      "As": 3178,
      "IL": 3179,
      "'ve": 3180,
      "Ġside": 3181,
      "Ġlab": 3182,
      "Ġgovern": 3183,
      "íĭ°": 3184,
      "à¹ĥà¸«": 3185,
      "ĠnhÃł": 3186,
      "æīĭ": 3187,
      "Ġëģ": 3188,
      "ump": 3189,
      "Ġhiá»ĩn": 3190,
      "ĠCan": 3191,
      "Ġprofess": 3192,
      "31": 3193,
      "rm": 3194,
      "leep": 3195,
      "iver": 3196,
      "ãģĪ": 3197,
      "test": 3198,
      "36": 3199,
      "atures": 3200,
      "ift": 3201,
      "agement": 3202,
      "ĊĊĊ": 3203,
      "ëĭ¬": 3204,
      "åħ¥": 3205,
      "æľĢ": 3206,
      "Ġhtt": 3207,
      "imal": 3208,
      "ëĿ¼ê³ł": 3209,
      "01": 3210,
      "ìĦ¸ìļĶ": 3211,
      "rist": 3212,
      "Ġrece": 3213,
      "Ġìĸ´ëĸ": 3214,
      "fo": 3215,
      "Ġenough": 3216,
      "pecial": 3217,
      "Ġsever": 3218,
      "Ġproblems": 3219,
      "Ġta": 3220,
      "ury": 3221,
      "åħ¬": 3222,
      "ĠhÃłng": 3223,
      "Ã¢m": 3224,
      "ĠDo": 3225,
      "Ġì»": 3226,
      "ĠUS": 3227,
      "Ġworking": 3228,
      "verage": 3229,
      "Ġhaving": 3230,
      "Ġshort": 3231,
      "ideo": 3232,
      "ĠìŀĪìĸ´": 3233,
      "Ġhistory": 3234,
      "à¹Ģà¸Ľà¹ĩà¸Ļ": 3235,
      "atus": 3236,
      "Ġtell": 3237,
      "cd": 3238,
      "Ġresults": 3239,
      "ĠInd": 3240,
      "ãģĭãĤī": 3241,
      "Ġmind": 3242,
      "ird": 3243,
      "áº¯c": 3244,
      "Ġleft": 3245,
      "ole": 3246,
      "lu": 3247,
      "Ġdig": 3248,
      "ination": 3249,
      "Ġwords": 3250,
      "æľĪ": 3251,
      "èª": 3252,
      "Ġfull": 3253,
      "Ġconnect": 3254,
      "Ġpress": 3255,
      "ĠLe": 3256,
      "ĠìĹŃ": 3257,
      "ready": 3258,
      "right": 3259,
      "Ġëĭ¬": 3260,
      "ìľ¼ë©°": 3261,
      "Ã²ng": 3262,
      "åĭ": 3263,
      "ç¬": 3264,
      "imate": 3265,
      "áº·t": 3266,
      "________": 3267,
      "ëĤ¨": 3268,
      "ĠtÃ´i": 3269,
      "FILE": 3270,
      "Ġquestions": 3271,
      "ãģĵãģ¨": 3272,
      "Ġexpect": 3273,
      "Ġsize": 3274,
      "onse": 3275,
      "ëł¨": 3276,
      "ë³Ħ": 3277,
      "Ġparticular": 3278,
      "iting": 3279,
      "ëĵ¤ìĿĦ": 3280,
      "áº£o": 3281,
      "ãħĭ": 3282,
      "Ġvarious": 3283,
      "ì¡±": 3284,
      "_T": 3285,
      "\")": 3286,
      "Ġcode": 3287,
      "ao": 3288,
      "}{": 3289,
      "á»ı": 3290,
      "Ġê°ĢëĬ¥": 3291,
      "âĸ": 3292,
      "èģ": 3293,
      "Ġthought": 3294,
      "uture": 3295,
      "ìĺĪ": 3296,
      "essage": 3297,
      "por": 3298,
      "ë¦¼": 3299,
      "********": 3300,
      "util": 3301,
      "!Ċ": 3302,
      "Ġìĭľê°Ħ": 3303,
      "/n": 3304,
      "uck": 3305,
      "AD": 3306,
      "ĠSp": 3307,
      "Ġnháº¥t": 3308,
      "ane": 3309,
      "Ġagainst": 3310,
      "mit": 3311,
      "è¶": 3312,
      "å¤©": 3313,
      ";ĊĊ": 3314,
      "duct": 3315,
      "íķ©": 3316,
      "199": 3317,
      "ĠCol": 3318,
      "çŁ": 3319,
      "Con": 3320,
      "Ġwomen": 3321,
      "ì£": 3322,
      "ended": 3323,
      "ë¡ł": 3324,
      "Ġskills": 3325,
      "dd": 3326,
      "Ġtoget": 3327,
      "Ġtogether": 3328,
      "Ġonline": 3329,
      "Ġteac": 3330,
      "Ġìĺ¬": 3331,
      "}\"Ċ": 3332,
      "Ġê°Ħ": 3333,
      "å¥½": 3334,
      "pos": 3335,
      "uro": 3336,
      "86": 3337,
      "-l": 3338,
      "Ã¢u": 3339,
      "co": 3340,
      "Ġtáº¡i": 3341,
      "05": 3342,
      "indow": 3343,
      "åķ": 3344,
      "ëĵ¤ìĿĺ": 3345,
      "._": 3346,
      "ledge": 3347,
      "Ġdays": 3348,
      "æĢ§": 3349,
      "Ġblood": 3350,
      "Pro": 3351,
      "================": 3352,
      "Æ°á»£ng": 3353,
      "Ġterm": 3354,
      "Ġsomeone": 3355,
      "ĠWith": 3356,
      "å®ļ": 3357,
      "Ġabove": 3358,
      "ĠthÃłnh": 3359,
      "ç¨": 3360,
      "iple": 3361,
      "There": 3362,
      "ribut": 3363,
      "Ġstruct": 3364,
      "Ġwar": 3365,
      "ë°°": 3366,
      "Ġtot": 3367,
      "Ġreason": 3368,
      "ĠWor": 3369,
      "place": 3370,
      "Ġíĸī": 3371,
      "Ġì¶ľ": 3372,
      "data": 3373,
      "Ġinit": 3374,
      "Ġleast": 3375,
      "US": 3376,
      "å¯¹": 3377,
      "ration": 3378,
      "Ġmen": 3379,
      "He": 3380,
      "éķ": 3381,
      "à¹ģà¸¥à¸°": 3382,
      "Ġmill": 3383,
      "à¸¡à¸µ": 3384,
      "ãģĻãĤĭ": 3385,
      "Ġaccount": 3386,
      "500": 3387,
      "ĠhÆ¡n": 3388,
      "ised": 3389,
      "áº»": 3390,
      "ules": 3391,
      "Ġê°ĻìĿĢ": 3392,
      "ĠTe": 3393,
      "Ġaway": 3394,
      "Ġclear": 3395,
      "Ġseveral": 3396,
      "erc": 3397,
      "åĬĽ": 3398,
      "ref": 3399,
      "ogn": 3400,
      "Ġdise": 3401,
      "Ġexist": 3402,
      "ä¸ļ": 3403,
      "à¸µà¸¢": 3404,
      "ĠOr": 3405,
      "ä½ĵ": 3406,
      "ãĤģ": 3407,
      "ĠëĲľ": 3408,
      "Ġperiod": 3409,
      "Ġnumbers": 3410,
      "ä¹Ł": 3411,
      "Ġcharacter": 3412,
      "sel": 3413,
      "ference": 3414,
      "Ġrelations": 3415,
      "::": 3416,
      "Ġimpact": 3417,
      "ored": 3418,
      "áº¡o": 3419,
      "Ġdiscuss": 3420,
      "Ġlanguage": 3421,
      "')": 3422,
      "_st": 3423,
      ".b": 3424,
      "Ġcontain": 3425,
      "Æ¡i": 3426,
      ".S": 3427,
      "ĠíķĦìļĶ": 3428,
      "ëķĮ": 3429,
      "Ġrequire": 3430,
      "oring": 3431,
      "Ġcause": 3432,
      "Ġteam": 3433,
      "Ġcontent": 3434,
      "Ġìļ´": 3435,
      "Ġdue": 3436,
      "Ġword": 3437,
      "Ã¡nh": 3438,
      "Ġbro": 3439,
      "urs": 3440,
      "Ġrisk": 3441,
      "etc": 3442,
      "ĠâĢĺ": 3443,
      "ormal": 3444,
      "Ġweight": 3445,
      "ĠÄĳá»Ļng": 3446,
      "ĠNh": 3447,
      "ĠAll": 3448,
      "Ġmajor": 3449,
      "Ġsource": 3450,
      "áº¹": 3451,
      "Ġcan't": 3452,
      "Äĥn": 3453,
      "rac": 3454,
      "åł": 3455,
      "Ġtalk": 3456,
      "reg": 3457,
      "idence": 3458,
      "Ġalready": 3459,
      "ograph": 3460,
      "Ġuntil": 3461,
      "cont": 3462,
      "à¸±à¸ĩ": 3463,
      "à¹Ģà¸£": 3464,
      "èĢħ": 3465,
      "ysis": 3466,
      "Ġfour": 3467,
      "áº¥p": 3468,
      "Ġíıī": 3469,
      "å¿ĥ": 3470,
      "vert": 3471,
      "Ġspecial": 3472,
      "action": 3473,
      "±c": 3474,
      "For": 3475,
      "Ġgot": 3476,
      "ĠmÃ¬nh": 3477,
      "_{": 3478,
      "íķŃ": 3479,
      "ĠGod": 3480,
      "Ã¡p": 3481,
      "Ġvalues": 3482,
      "):": 3483,
      "ãģ¤": 3484,
      "Ġmot": 3485,
      "Ġ||": 3486,
      "Ġì°¸": 3487,
      "75": 3488,
      "Ġstory": 3489,
      "êµ°": 3490,
      "ram": 3491,
      "ands": 3492,
      "ived": 3493,
      "å§": 3494,
      "á»±c": 3495,
      "ounds": 3496,
      "ì§ĢëĬĶ": 3497,
      "lection": 3498,
      "go": 3499,
      "uff": 3500,
      "Ġì¢ħ": 3501,
      "ĠìĤ°": 3502,
      "ë¦½": 3503,
      "aps": 3504,
      "éĿ¢": 3505,
      "Ġdoing": 3506,
      "ë¦¬ëĬĶ": 3507,
      "Ġì§ĳ": 3508,
      "Ãºc": 3509,
      "æĥħ": 3510,
      "sp": 3511,
      "ission": 3512,
      "/$": 3513,
      "Ġbreak": 3514,
      "Ġstop": 3515,
      "ĠBy": 3516,
      "roll": 3517,
      "Ġways": 3518,
      "Ġcut": 3519,
      "ĠíĴ": 3520,
      "rel": 3521,
      "34": 3522,
      "ones": 3523,
      "Ġchall": 3524,
      "Ġexit": 3525,
      "Ġlove": 3526,
      "Ġsimple": 3527,
      "ĠnÃªn": 3528,
      "Ġsignificant": 3529,
      "Ġaffect": 3530,
      "åĵģ": 3531,
      "When": 3532,
      "urther": 3533,
      "ĠëĶ°ëĿ¼": 3534,
      "ĠëĬĲ": 3535,
      "opy": 3536,
      "ured": 3537,
      "ì»": 3538,
      "args": 3539,
      "Ġinput": 3540,
      "Ġbegin": 3541,
      "æ³ķ": 3542,
      "Ġfore": 3543,
      "Ġbi": 3544,
      "Ġwriting": 3545,
      "url": 3546,
      "</": 3547,
      "à¸¡à¹Ī": 3548,
      "íħĮ": 3549,
      "æĸĩ": 3550,
      "Ġfar": 3551,
      "ãģĽ": 3552,
      "Ġfail": 3553,
      "Ã´n": 3554,
      "ĠÄĳá»ĵ": 3555,
      "Ġì¦Ŀ": 3556,
      "inter": 3557,
      "Ġflow": 3558,
      "åĲĮ": 3559,
      "ì¶Ķ": 3560,
      "ache": 3561,
      "ĠëĦĪ": 3562,
      "ì¦Ī": 3563,
      "Ġyoung": 3564,
      "(Ċ": 3565,
      "çµ": 3566,
      "Ġevent": 3567,
      "ëĦĪ": 3568,
      "Ġcompany": 3569,
      "áº¯t": 3570,
      ".j": 3571,
      "Ġimprove": 3572,
      "fer": 3573,
      "ĠíĨµíķ´": 3574,
      "Ġë§Įëĵ¤": 3575,
      "ç®": 3576,
      "áº¿u": 3577,
      "éĥ¨": 3578,
      "à¸²à¸ĩ": 3579,
      "à¸Ńà¸¢": 3580,
      "Ġë°©ë²ķ": 3581,
      "ĠShe": 3582,
      "Ġey": 3583,
      "Ġemploy": 3584,
      "umn": 3585,
      "/m": 3586,
      "gen": 3587,
      "Ġsá»ĳ": 3588,
      "ipp": 3589,
      "Ġbit": 3590,
      "back": 3591,
      "íİ¸": 3592,
      "ilities": 3593,
      "Ġëª©": 3594,
      "áº«n": 3595,
      "run": 3596,
      "á»Ļc": 3597,
      "Ġoutput": 3598,
      "Ġdoc": 3599,
      "(x": 3600,
      "Com": 3601,
      "ê±°ëĤĺ": 3602,
      "ĠìĥĪ": 3603,
      "íķ´ìķ¼": 3604,
      "Ġage": 3605,
      "ĠÄĳi": 3606,
      "Ġindust": 3607,
      "ING": 3608,
      "ĠìĭĿ": 3609,
      "Ġsal": 3610,
      "è·": 3611,
      "Ġstrateg": 3612,
      "Ġeconom": 3613,
      "aching": 3614,
      "/bin": 3615,
      ".f": 3616,
      "obal": 3617,
      "ë§Ŀ": 3618,
      "ĉecho": 3619,
      "ĠâĪ": 3620,
      "èī²": 3621,
      "Ġfield": 3622,
      "aring": 3623,
      "ãģ¿": 3624,
      "Ġ>>": 3625,
      "Ġhappen": 3626,
      "ĠíĻĶ": 3627,
      "by": 3628,
      "Ġëĭ¤ë¥¸": 3629,
      "Ġì§ģ": 3630,
      "Ġnecess": 3631,
      "ëłĩê²Į": 3632,
      "Ġchuy": 3633,
      "ëħ¸": 3634,
      "Ġmax": 3635,
      "ctions": 3636,
      "Ġcommunity": 3637,
      "ators": 3638,
      "ìĻ¸": 3639,
      "andom": 3640,
      "ĥn": 3641,
      "éļ": 3642,
      "asing": 3643,
      "å¸Ĥ": 3644,
      "ĠìĨį": 3645,
      "omet": 3646,
      "è£": 3647,
      "lab": 3648,
      "íķĺë©°": 3649,
      "Ġstrong": 3650,
      "iction": 3651,
      "Ġeducation": 3652,
      "env": 3653,
      "Ġant": 3654,
      "Ġweek": 3655,
      "ĠnÆ°á»Ľc": 3656,
      "çľĭ": 3657,
      "ìĺ¨": 3658,
      "ĠcÃ²n": 3659,
      "à¸Ĥà¸Ńà¸ĩ": 3660,
      "Ġpersonal": 3661,
      "Ġcond": 3662,
      ".,": 3663,
      "ĠíĻľ": 3664,
      "(s": 3665,
      "Ġráº¥t": 3666,
      "_C": 3667,
      "ëĤł": 3668,
      "Ġexc": 3669,
      "IS": 3670,
      "Ġthat's": 3671,
      "istic": 3672,
      "Ġport": 3673,
      "Ġì¹ĺ": 3674,
      "ìĥī": 3675,
      "ĠìľĦíķ´": 3676,
      "clus": 3677,
      "ìħĺ": 3678,
      "åĬ¨": 3679,
      "Ġtypes": 3680,
      "Ġê²ĥìĿĦ": 3681,
      "Ġbehav": 3682,
      "ç©": 3683,
      "ãĤı": 3684,
      "af": 3685,
      "ians": 3686,
      "org": 3687,
      "Ġrate": 3688,
      "37": 3689,
      "íķĺëĭ¤": 3690,
      "Ġimage": 3691,
      "ä¸»": 3692,
      "Ġcomes": 3693,
      "Ġcorrect": 3694,
      "Ġalong": 3695,
      "Ġwrite": 3696,
      "ĠÄĳá»ģ": 3697,
      "Ġê¸Ī": 3698,
      "çĿ": 3699,
      "ĠchÃŃnh": 3700,
      "åĲİ": 3701,
      "UN": 3702,
      "ym": 3703,
      "è¯´": 3704,
      "Ġcountry": 3705,
      "ëĲĺìĸ´": 3706,
      "ë¸Į": 3707,
      "Ġmar": 3708,
      "éĤ": 3709,
      "Ġtoday": 3710,
      "Ġìķ½": 3711,
      "Ġusually": 3712,
      "Ġfac": 3713,
      "Ġpack": 3714,
      "Ġfuture": 3715,
      "Ġwhether": 3716,
      "çĪ": 3717,
      "04": 3718,
      "Ġearly": 3719,
      "ibility": 3720,
      "ãĤ¿": 3721,
      "version": 3722,
      "ĠìŀĲìĭł": 3723,
      "ëĿ¼ëĬĶ": 3724,
      "iá»ĥm": 3725,
      "ina": 3726,
      "£p": 3727,
      "Ġrelationship": 3728,
      "Ġeither": 3729,
      "Ġvir": 3730,
      "íİĺ": 3731,
      "Ġtiáº¿": 3732,
      "}\\": 3733,
      "ĠëķĮë¬¸ìĹĲ": 3734,
      "ctor": 3735,
      "Ġlikely": 3736,
      "OP": 3737,
      "side": 3738,
      "Un": 3739,
      "ĠBl": 3740,
      "Ġmag": 3741,
      "Ġì°¾": 3742,
      "Ġbelow": 3743,
      "ëıĦë¡Ŀ": 3744,
      "chie": 3745,
      "ìĹĲëıĦ": 3746,
      "Ġëĸ": 3747,
      "å·¥": 3748,
      "Ġquy": 3749,
      "Ġeasy": 3750,
      "conf": 3751,
      "Ġprevent": 3752,
      "Ġìĭ¶": 3753,
      "íĻ©": 3754,
      "Ġlarg": 3755,
      "Ġsimilar": 3756,
      "ĠAmerican": 3757,
      "ĠInst": 3758,
      "ĠíļĮ": 3759,
      "ered": 3760,
      "--------------------------------": 3761,
      "38": 3762,
      "Ġcrit": 3763,
      "ĠëĨĴ": 3764,
      "itle": 3765,
      "wards": 3766,
      "Ġpast": 3767,
      "icro": 3768,
      "Ġtháº¿": 3769,
      "Ġlooking": 3770,
      "Ġthough": 3771,
      "ype": 3772,
      "Ġdetail": 3773,
      "Ġconfig": 3774,
      "ĠnÄĥm": 3775,
      "flow": 3776,
      "head": 3777,
      "Ġì¤ĳìļĶ": 3778,
      "Ġnatural": 3779,
      "ä»¬": 3780,
      "Ġcy": 3781,
      "ï¼": 3782,
      "ED": 3783,
      "Ġwebs": 3784,
      "Ġíķĺê³ł": 3785,
      "ĠíĹ": 3786,
      "Ġpred": 3787,
      "á»ģn": 3788,
      "à¸ĵ": 3789,
      "ãģĦãĤĭ": 3790,
      "æīĢ": 3791,
      "Ġservice": 3792,
      "Ġì½Ķ": 3793,
      "rag": 3794,
      "local": 3795,
      "09": 3796,
      "ĠAt": 3797,
      "ĠìłĲ": 3798,
      "Ġê²ĥìĿ´ëĭ¤": 3799,
      "my": 3800,
      "Ġìĭľìŀĳ": 3801,
      "Ġpoints": 3802,
      "ãģ¾ãģĹãģŁ": 3803,
      "à¹Īà¸Ļ": 3804,
      "/d": 3805,
      "Ġincrease": 3806,
      "éĥ½": 3807,
      "å¾Ĺ": 3808,
      "Ġà¹Ģà¸": 3809,
      "ĠĠĠĠĠĠ": 3810,
      "nt": 3811,
      "Ġsingle": 3812,
      "ë³´ëĭ¤": 3813,
      "Ġë§İìĿĢ": 3814,
      "no": 3815,
      "å£": 3816,
      "Ġchanges": 3817,
      "pecially": 3818,
      "á»ĳn": 3819,
      "plic": 3820,
      "Ġidea": 3821,
      "Ġtarget": 3822,
      "Ġaddress": 3823,
      "ests": 3824,
      "Ġunderstanding": 3825,
      "Ġhigher": 3826,
      "ì´Ī": 3827,
      "[\"": 3828,
      "ìĹĲìĦľëĬĶ": 3829,
      "ìľ¼ë©´": 3830,
      "Ġsays": 3831,
      "ological": 3832,
      "55": 3833,
      "Æ°a": 3834,
      "Ġopportun": 3835,
      "Ġrole": 3836,
      "Ġrad": 3837,
      "ëĮĢë¡ľ": 3838,
      "éģĵ": 3839,
      "Ġhá»£p": 3840,
      "rad": 3841,
      "Ġheart": 3842,
      "Ġrepresent": 3843,
      "~~": 3844,
      "Ġíķ¨ê»ĺ": 3845,
      "ç½ĳ": 3846,
      "Ġquan": 3847,
      "Ġvi": 3848,
      "ĠĠĠĠĠĠĠĠĠĠĠĠĠĠĠĠĠĠĠĠĠĠĠĠĠĠĠĠĠĠĠĠ": 3849,
      "Ġdescrib": 3850,
      "39": 3851,
      "ivity": 3852,
      "čĊčĊ": 3853,
      "06": 3854,
      "Ġpercent": 3855,
      "ĠcÃ¡ch": 3856,
      "Ġë©Ķ": 3857,
      "Ġsau": 3858,
      "ĠâĢľ": 3859,
      "ĢìĿĦ": 3860,
      "upp": 3861,
      "Ġgovernment": 3862,
      "ä¹ĭ": 3863,
      "book": 3864,
      "Ġdifficult": 3865,
      "à¹ĥà¸«à¹ī": 3866,
      "aging": 3867,
      "åº¦": 3868,
      "æ¥": 3869,
      "Ġëĵľ": 3870,
      "íĻľ": 3871,
      "Ġgetting": 3872,
      "^{": 3873,
      "ta": 3874,
      "Ġìĸĳ": 3875,
      "ĠìĹ´": 3876,
      "ĠApp": 3877,
      "å½±": 3878,
      "ĠÃ": 3879,
      "Ġíİ¸": 3880,
      "Ġknowledge": 3881,
      "uation": 3882,
      "Cl": 3883,
      "ãĥ¬": 3884,
      "\".": 3885,
      "way": 3886,
      "Ġëªħ": 3887,
      "osp": 3888,
      "¦¬": 3889,
      "åĨħ": 3890,
      "{Ċ": 3891,
      "ä½ł": 3892,
      "ising": 3893,
      "ights": 3894,
      "ĠOne": 3895,
      "Ġnp": 3896,
      "Ġessential": 3897,
      "num": 3898,
      "Ġ@": 3899,
      "Ġrespons": 3900,
      "Ġê²ĥìĿĢ": 3901,
      "Ġsoft": 3902,
      "Ġcolor": 3903,
      "enc": 3904,
      "Ġquick": 3905,
      "Ġacross": 3906,
      "df": 3907,
      "éĩĳ": 3908,
      "alf": 3909,
      "à¸Īà¸°": 3910,
      "ãĤ·": 3911,
      "Ġnear": 3912,
      "44": 3913,
      "Ġsugg": 3914,
      "Ġneg": 3915,
      "Ġtotal": 3916,
      "Ġtechnology": 3917,
      "Ģë¡ľ": 3918,
      "ëĿ½": 3919,
      "ìľ¡": 3920,
      "So": 3921,
      ".app": 3922,
      "ires": 3923,
      "Ġmusic": 3924,
      "Ġdat": 3925,
      "Ġthá»Ŀi": 3926,
      "ĠNg": 3927,
      "Ġrecord": 3928,
      "à¸Ħà¸§": 3929,
      "Ġmass": 3930,
      "ney": 3931,
      "Ġselect": 3932,
      "ĠÐ": 3933,
      "ming": 3934,
      "Ġareas": 3935,
      "Ġìĭ¬": 3936,
      "Ġclean": 3937,
      "Ġonce": 3938,
      "Ġlive": 3939,
      "ĠUniversity": 3940,
      "=\"${": 3941,
      "ero": 3942,
      "comp": 3943,
      "selves": 3944,
      "çĽ®": 3945,
      "ª½": 3946,
      "Ġissues": 3947,
      "Ġxu": 3948,
      "ython": 3949,
      "Ġìĵ": 3950,
      "Ġappear": 3951,
      "Ġstudent": 3952,
      "ĠìĿĮ": 3953,
      "ĠìķĦìĿ´": 3954,
      "most": 3955,
      "ĠnhÃ¢n": 3956,
      "export": 3957,
      "fficient": 3958,
      "Ġrequired": 3959,
      "Ġì´Ī": 3960,
      "Ġtemper": 3961,
      "ë¦¬ë¥¼": 3962,
      "rec": 3963,
      "MA": 3964,
      "ream": 3965,
      "Ġwhole": 3966,
      "ðĿ": 3967,
      "ĠâĢĶ": 3968,
      "áº¥n": 3969,
      "áº¡t": 3970,
      "íĶĮ": 3971,
      "á»ĳt": 3972,
      "Ġì²ĺ": 3973,
      "ias": 3974,
      "ëĲĺëĬĶ": 3975,
      "imum": 3976,
      "Ġquality": 3977,
      "Ġlay": 3978,
      "Ġbuy": 3979,
      "Ġ$$": 3980,
      "Ġdeg": 3981,
      "ĠYour": 3982,
      "åĬł": 3983,
      "ĠìĻ¸": 3984,
      "ification": 3985,
      "SC": 3986,
      "#!": 3987,
      "ĠíĪ¬": 3988,
      "oups": 3989,
      "Ġíģ¬": 3990,
      "Ġsqu": 3991,
      "Ġë²Ī": 3992,
      "Ġgeneral": 3993,
      "Ġê±¸": 3994,
      "Ġë§ĪìĿĮ": 3995,
      "Ġensure": 3996,
      "sy": 3997,
      "aken": 3998,
      "Ġê°Ģì§Ģ": 3999,
      "ê¸°ëıĦ": 4000,
      "äºİ": 4001,
      "Ġassoci": 4002,
      "Ġhouse": 4003,
      "ĠëıĮ": 4004,
      "áº©m": 4005,
      "ìķ¡": 4006,
      "Wh": 4007,
      "iá»ģn": 4008,
      "Ãªm": 4009,
      "ĠìĨĲ": 4010,
      "è¿ĩ": 4011,
      "Ġê²Į": 4012,
      "Ġtable": 4013,
      "ĠChrist": 4014,
      "ç¥": 4015,
      "Ġprotect": 4016,
      "åĮĸ": 4017,
      "Ġtin": 4018,
      "ĉif": 4019,
      "ele": 4020,
      "Ġëĭ¤ìĸĳ": 4021,
      "iety": 4022,
      "å¼Ģ": 4023,
      "Ġsystems": 4024,
      "izing": 4025,
      "02": 4026,
      "Ġë§ŀ": 4027,
      "Ġë¬¸ìłľ": 4028,
      "Ġtraining": 4029,
      "Ġplant": 4030,
      "ĉĉĉ": 4031,
      "ĠchÃºng": 4032,
      "Ġachie": 4033,
      "ilt": 4034,
      "ëĭ´": 4035,
      "ĠngÃły": 4036,
      "Ġíŀ": 4037,
      "Ġíļ¨": 4038,
      "å¤ĸ": 4039,
      "æĻĤ": 4040,
      "cription": 4041,
      "ĠStud": 4042,
      "á»ĭch": 4043,
      "à¸´à¸Ļ": 4044,
      "aim": 4045,
      "Ġsuper": 4046,
      "Ġ]];": 4047,
      "mun": 4048,
      "ìĹĪìĬµëĭĪëĭ¤": 4049,
      "éĢļ": 4050,
      "ott": 4051,
      "AB": 4052,
      "Ġlower": 4053,
      "ÂłìĿ´": 4054,
      "oud": 4055,
      "ĠíĻķìĿ¸": 4056,
      "Ġservices": 4057,
      "arc": 4058,
      "æĢĿ": 4059,
      "ëĪ": 4060,
      "Ġì¤Ħ": 4061,
      "Ġever": 4062,
      "Ġpaper": 4063,
      "ply": 4064,
      "âĶ": 4065,
      "Ġë³¸": 4066,
      "Ġconcept": 4067,
      "ëł¹": 4068,
      "oin": 4069,
      "Ġlevels": 4070,
      "ude": 4071,
      "Ġphysical": 4072,
      "++": 4073,
      "Ġmeet": 4074,
      "/c": 4075,
      "Al": 4076,
      "Ġ}": 4077,
      "\",Ċ": 4078,
      "ey": 4079,
      "_in": 4080,
      "tmp": 4081,
      "ĠëĤł": 4082,
      "Ġabs": 4083,
      "Ġphot": 4084,
      "list": 4085,
      "Ġsent": 4086,
      "ĠëĿ": 4087,
      "Ġgit": 4088,
      "\"]": 4089,
      "Ġpractice": 4090,
      "ìĬ¤íĬ¸": 4091,
      "ption": 4092,
      "ãĥ³ãĥ": 4093,
      "ĠìĿ´ìĥģ": 4094,
      "æĦŁ": 4095,
      "Ġsáº£n": 4096,
      "Ġcu": 4097,
      "ĠÄĳiá»ģu": 4098,
      "Ġvideo": 4099,
      "Ġdog": 4100,
      "Ġversion": 4101,
      "Ġsá»Ń": 4102,
      "ÂłÂłÂłÂłÂłÂłÂłÂł": 4103,
      "ĠSome": 4104,
      "though": 4105,
      "Ġill": 4106,
      "Ġë§İìĿ´": 4107,
      "Ġë§Ľ": 4108,
      "Ġexcept": 4109,
      "lished": 4110,
      "utions": 4111,
      "resh": 4112,
      "Ġamong": 4113,
      "ë³Ģ": 4114,
      "Ġë¸": 4115,
      "ĠìĹĲ": 4116,
      "èĬ": 4117,
      "ĠíĸĪ": 4118,
      "åĿ": 4119,
      "ëĨ": 4120,
      "path": 4121,
      "ĠCont": 4122,
      "Ġexperien": 4123,
      "Ġê³³": 4124,
      "utes": 4125,
      "Ġred": 4126,
      "Ġë²Ħ": 4127,
      "Ġ...": 4128,
      "Ġhá»įc": 4129,
      "Ġsense": 4130,
      "à¸±à¸ģ": 4131,
      "Ġê°Ģìŀ¥": 4132,
      "æģ": 4133,
      "ĠnÃ³i": 4134,
      "çīĩ": 4135,
      "iá»ĥu": 4136,
      "Ġposition": 4137,
      "æľº": 4138,
      "ĠEnglish": 4139,
      "Ġfig": 4140,
      "OS": 4141,
      "Ġíĺ¸": 4142,
      "Ġactivities": 4143,
      "ĠFr": 4144,
      "isc": 4145,
      "ĠÄĳá»ĭnh": 4146,
      "function": 4147,
      "æŁ": 4148,
      "å½ĵ": 4149,
      "aves": 4150,
      "48": 4151,
      "ler": 4152,
      "Ġetc": 4153,
      "Ġcomplex": 4154,
      "Ġisn't": 4155,
      "ë©Ķ": 4156,
      "ëĬĲ": 4157,
      "#!/": 4158,
      "Ġsolution": 4159,
      "pend": 4160,
      "ĠíĻĺ": 4161,
      "çİ°": 4162,
      "ĠnhÆ°ng": 4163,
      "åĲį": 4164,
      "å»": 4165,
      "Ġdifference": 4166,
      "atter": 4167,
      "rap": 4168,
      "rary": 4169,
      "Ġsubject": 4170,
      "ĠNo": 4171,
      "ait": 4172,
      "fect": 4173,
      "Ġíĳľ": 4174,
      "https": 4175,
      "Ġreading": 4176,
      "Ġkho": 4177,
      "Ġtheo": 4178,
      "rences": 4179,
      "Ġthá»©": 4180,
      "ĠcÆ¡": 4181,
      "Ġbad": 4182,
      "Ġ__": 4183,
      "col": 4184,
      "ãħĭãħĭ": 4185,
      "plement": 4186,
      "ì²ĺëŁ¼": 4187,
      "Ġdam": 4188,
      "Ġconc": 4189,
      "Ġì¹´": 4190,
      "On": 4191,
      "Ġloss": 4192,
      "Ġla": 4193,
      "Ġanything": 4194,
      "Ġpage": 4195,
      "08": 4196,
      "_h": 4197,
      "à¹Ħà¸¡à¹Ī": 4198,
      "........": 4199,
      "Ġlater": 4200,
      "íĮĲ": 4201,
      "Ġë¦¬": 4202,
      "ĠIm": 4203,
      "serv": 4204,
      "nal": 4205,
      "install": 4206,
      "Ġcat": 4207,
      "ìĭľê°Ħ": 4208,
      "éħ": 4209,
      "(t": 4210,
      "ĠkhÃ¡c": 4211,
      "Ġver": 4212,
      "Ġespecially": 4213,
      "Ġká»": 4214,
      "Ġfall": 4215,
      "ruction": 4216,
      "http": 4217,
      "ìĹĨ": 4218,
      "HE": 4219,
      "ched": 4220,
      "/.": 4221,
      "ĠcÃ¹ng": 4222,
      "Æ°á»Ł": 4223,
      "Ġseen": 4224,
      "joy": 4225,
      "á»©ng": 4226,
      "Ġnghiá»ĩ": 4227,
      "ä½¿": 4228,
      "çķ": 4229,
      "anced": 4230,
      "################################": 4231,
      "Ġtaking": 4232,
      "_file": 4233,
      "è²": 4234,
      "Ġauthor": 4235,
      "ĠíķĻ": 4236,
      "Ġang": 4237,
      "ĠCal": 4238,
      "Ġneeded": 4239,
      "Ġ)Ċ": 4240,
      "ìĨ¡": 4241,
      "OL": 4242,
      "áº¡nh": 4243,
      "ores": 4244,
      "à¹Ģà¸¥": 4245,
      "Ġspeed": 4246,
      "ĠgiÃ¡": 4247,
      "Ġaud": 4248,
      "Ġprovides": 4249,
      "Ġdeb": 4250,
      "inary": 4251,
      "Ġarticle": 4252,
      "æķ°": 4253,
      "acy": 4254,
      "ĠëĪĦ": 4255,
      "ìĬ¹": 4256,
      "WOR": 4257,
      "elling": 4258,
      "æĦı": 4259,
      "ĠUnited": 4260,
      "Ġoffer": 4261,
      "Ġpositive": 4262,
      "ë¶Ī": 4263,
      "ĠìĪľ": 4264,
      "HOME": 4265,
      "ëĵĿ": 4266,
      "ë°ķ": 4267,
      "ĠPr": 4268,
      "Ġthá»±c": 4269,
      "çĶµ": 4270,
      "Ġrather": 4271,
      "LI": 4272,
      "éĩį": 4273,
      "ºĲ": 4274,
      "Æ°á»Łng": 4275,
      "Ġproducts": 4276,
      "é»": 4277,
      "ocker": 4278,
      "è¢": 4279,
      "Ġdidn't": 4280,
      "att": 4281,
      "Ġresources": 4282,
      "è°": 4283,
      "ÄĲ": 4284,
      "ä»Ĭ": 4285,
      "ĠKh": 4286,
      "gress": 4287,
      "Ġintrodu": 4288,
      "ises": 4289,
      "icy": 4290,
      "è¿Ľ": 4291,
      "çŃī": 4292,
      "[i": 4293,
      "á»¥c": 4294,
      "Ġmá»Ľi": 4295,
      "à¸ĭ": 4296,
      "Ġsleep": 4297,
      "value": 4298,
      "ãģ®ãģ§": 4299,
      "èĪ": 4300,
      "Ġdisease": 4301,
      "çĤ¹": 4302,
      "Ġgraph": 4303,
      "then": 4304,
      "07": 4305,
      "Ġsens": 4306,
      "Ġrecomm": 4307,
      "Ġfiles": 4308,
      "áº£ng": 4309,
      "à¹Īà¸²à¸ĩ": 4310,
      "plit": 4311,
      "ze": 4312,
      "rees": 4313,
      "ancial": 4314,
      "Ġcao": 4315,
      "SS": 4316,
      "].": 4317,
      "][": 4318,
      "bl": 4319,
      "Ġyourself": 4320,
      "íıī": 4321,
      "Ġhours": 4322,
      "www": 4323,
      "ê¸°ìĹĲ": 4324,
      "ield": 4325,
      "æĺİ": 4326,
      "Ġcreated": 4327,
      "Ġbiáº¿t": 4328,
      "Ġcáº§n": 4329,
      "ë§ĮìĽĲ": 4330,
      "math": 4331,
      "verse": 4332,
      "kdir": 4333,
      "Ġrele": 4334,
      "Ġconditions": 4335,
      "ç»ı": 4336,
      "''": 4337,
      "ĠMan": 4338,
      "ike": 4339,
      "ĠMy": 4340,
      "Ġprim": 4341,
      "oman": 4342,
      "Ġeffects": 4343,
      "ë³ĳ": 4344,
      "iation": 4345,
      "itch": 4346,
      "Ġcombin": 4347,
      "à¸«à¸Ļ": 4348,
      "Ġterms": 4349,
      "Ġpopular": 4350,
      "where": 4351,
      "with": 4352,
      "åĽŀ": 4353,
      "Ġbelieve": 4354,
      "uments": 4355,
      "ĠChe": 4356,
      "æį": 4357,
      "Ġsearch": 4358,
      "mon": 4359,
      "root": 4360,
      "ãĥŃ": 4361,
      "Ġlink": 4362,
      "Ġscient": 4363,
      "Ġblack": 4364,
      "acc": 4365,
      "part": 4366,
      "Ġlength": 4367,
      "ĠGo": 4368,
      "fully": 4369,
      "ison": 4370,
      "Ġë³µ": 4371,
      "ĠíĥĢ": 4372,
      "rror": 4373,
      "Ġmom": 4374,
      "ê²¨": 4375,
      "_B": 4376,
      "ìĹ´": 4377,
      "Ġì¢ĭìĿĢ": 4378,
      "Ġtreatment": 4379,
      "Ġengine": 4380,
      "Ġapproach": 4381,
      "raft": 4382,
      "Ġlu": 4383,
      "Ġconsum": 4384,
      "arr": 4385,
      "}.": 4386,
      "Ġì²´": 4387,
      "Ġcannot": 4388,
      "Ġbuilding": 4389,
      "odel": 4390,
      "è¡¨": 4391,
      "Ġì²Ń": 4392,
      "(n": 4393,
      "ë°±": 4394,
      "rong": 4395,
      "à¸·à¹Īà¸Ń": 4396,
      "repo": 4397,
      "á»įn": 4398,
      "ĠCent": 4399,
      "ìĪľ": 4400,
      "Ġunique": 4401,
      "ags": 4402,
      "Ġcirc": 4403,
      "ìĿ´ê³ł": 4404,
      "Ġaction": 4405,
      "lying": 4406,
      "ãĤ³": 4407,
      "Ġmeasure": 4408,
      "ê´ĳ": 4409,
      "Ġ\"\"\"Ċ": 4410,
      "ava": 4411,
      "ëħĢ": 4412,
      "ĠíĶĦë¡ľ": 4413,
      "Ġavoid": 4414,
      "ä¸ī": 4415,
      "300": 4416,
      "Ġíģ°": 4417,
      "Ġprobably": 4418,
      "Ġsinh": 4419,
      "Ġëª¨ëĵł": 4420,
      "Ġpie": 4421,
      "Ġpressure": 4422,
      "Ġsym": 4423,
      "ìĸ¸": 4424,
      "Ġê¸¸": 4425,
      "å®ī": 4426,
      "Ġtrying": 4427,
      "Ġdraw": 4428,
      "Sh": 4429,
      "xy": 4430,
      "Ġeverything": 4431,
      "Ġtax": 4432,
      "åĪ©": 4433,
      "Ġgrowth": 4434,
      "Ġability": 4435,
      "ĠĠĠĠĠĠĠĠĠĠĠĠĠĠĠĠĠĠĠĠĠĠĠ": 4436,
      "ites": 4437,
      "Ġkill": 4438,
      "But": 4439,
      "à¹Ģà¸ģ": 4440,
      "tual": 4441,
      "Ġëĭ¤ìĸĳíķľ": 4442,
      "Ġdefault": 4443,
      "TE": 4444,
      "ĠtrÆ°á»Ŀng": 4445,
      "Ġê·¸ë¦¬ê³ł": 4446,
      "itor": 4447,
      "Ġfurther": 4448,
      "ãģ¨ãģĦ": 4449,
      "eral": 4450,
      "iet": 4451,
      "Ġinflu": 4452,
      "ename": 4453,
      "ival": 4454,
      "Ġìķŀ": 4455,
      "Ġscience": 4456,
      "Ġcred": 4457,
      "ilit": 4458,
      "rix": 4459,
      "time": 4460,
      "ĠnÃło": 4461,
      "Ġexerc": 4462,
      "Ġê·¼": 4463,
      "Ġcomputer": 4464,
      "amb": 4465,
      "ìĿ´ëĬĶ": 4466,
      "ë°Ľ": 4467,
      "Ġload": 4468,
      "ìĿ´ëĿ¼ê³ł": 4469,
      "Ph": 4470,
      "na": 4471,
      "ĠÄĳang": 4472,
      "Ġindic": 4473,
      "aries": 4474,
      "Ġmatter": 4475,
      "áºŃy": 4476,
      "Ġshare": 4477,
      "iá»ĥn": 4478,
      "Ġsort": 4479,
      "Ġdom": 4480,
      "fs": 4481,
      "ĠëĪĪ": 4482,
      "Ġë¡": 4483,
      "Ġcontinue": 4484,
      "gs": 4485,
      "Ġfrequ": 4486,
      "Ġwebsite": 4487,
      "çī©": 4488,
      "lege": 4489,
      "à¸Ħà¸§à¸²à¸¡": 4490,
      "Ġbal": 4491,
      "ãĥķ": 4492,
      "order": 4493,
      "Ġinstead": 4494,
      "Ġessay": 4495,
      "Ġexplain": 4496,
      "Ġpolit": 4497,
      "ĠNot": 4498,
      "çĿĢ": 4499,
      "Ġtakes": 4500,
      "-w": 4501,
      "Ġhelps": 4502,
      "èĢĮ": 4503,
      "else": 4504,
      "ql": 4505,
      "comes": 4506,
      "à¸µà¹ī": 4507,
      "ula": 4508,
      "ogle": 4509,
      "èĭ": 4510,
      "atform": 4511,
      "Ġface": 4512,
      "odes": 4513,
      "hing": 4514,
      "oll": 4515,
      "rs": 4516,
      "lex": 4517,
      "Ġìī": 4518,
      "ĠÄĳá»ĵng": 4519,
      "ëĭ¤ë©´": 4520,
      "Ġcompet": 4521,
      "Ġaverage": 4522,
      "iate": 4523,
      "ĠĠĠĠĠĠĠĠĠ": 4524,
      "Ġflo": 4525,
      "å®ŀ": 4526,
      "pri": 4527,
      "ĠìłķëıĦ": 4528,
      "',Ċ": 4529,
      "Ġentire": 4530,
      "udo": 4531,
      "ging": 4532,
      "frac": 4533,
      "ding": 4534,
      "Ġexact": 4535,
      "Ġfactors": 4536,
      "ĠlÃªn": 4537,
      "Ġindividuals": 4538,
      "ĠMe": 4539,
      ">>": 4540,
      "Ġparents": 4541,
      "ĠMay": 4542,
      "Ġsimply": 4543,
      "éľ": 4544,
      "Ġenjoy": 4545,
      "ãģĦãģ¾ãģĻ": 4546,
      "Ġeffective": 4547,
      "á»ķi": 4548,
      "å¦Ĥ": 4549,
      "Ġparticip": 4550,
      "ouble": 4551,
      "æ¶": 4552,
      "ĠNam": 4553,
      "ì§¸": 4554,
      "Ġresponse": 4555,
      ".\"Ċ": 4556,
      "ohn": 4557,
      "Ġmach": 4558,
      "çĦ¶": 4559,
      "ì¶ķ": 4560,
      "\"\"": 4561,
      "Ġwon": 4562,
      "Ġanim": 4563,
      "ĠStates": 4564,
      "ĠhÃ¬nh": 4565,
      "Ġê°ģ": 4566,
      "pose": 4567,
      "Ġanalysis": 4568,
      "èº": 4569,
      "ãĤ«": 4570,
      "ĠìķĬëĬĶ": 4571,
      "éł": 4572,
      "ĠthÃ´ng": 4573,
      "ension": 4574,
      "ê¸°ê°Ģ": 4575,
      "tings": 4576,
      "ë¨¸": 4577,
      "Ġoptions": 4578,
      "And": 4579,
      "Ġ!=": 4580,
      "á»ĵi": 4581,
      "Ġhol": 4582,
      "ìŀĲê°Ģ": 4583,
      "ences": 4584,
      "Ġì¶©": 4585,
      "à¹īà¸ĩ": 4586,
      "Ġbir": 4587,
      "ç³": 4588,
      "Ġdeal": 4589,
      "empt": 4590,
      "Ġstress": 4591,
      "Ġtháº¥y": 4592,
      "ðŁ": 4593,
      ".append": 4594,
      "Ġ..": 4595,
      "Ġperformance": 4596,
      "Ġfeed": 4597,
      "çĽ¸": 4598,
      "ĠìĻĦ": 4599,
      "ene": 4600,
      "Ġsite": 4601,
      "Ġregular": 4602,
      "True": 4603,
      "bra": 4604,
      "Ġhay": 4605,
      "ĠÄĳÃ¢y": 4606,
      "ìª½": 4607,
      "ãĤ¸": 4608,
      "Ġnecessary": 4609,
      "ìĸ´ìļĶ": 4610,
      "ditional": 4611,
      "áº¯n": 4612,
      "ĠvÃ¬": 4613,
      "Ġkids": 4614,
      "ĠSchool": 4615,
      "Ġchalleng": 4616,
      "à¹Īà¸§": 4617,
      "Ġdeath": 4618,
      "Ġprice": 4619,
      "ì£ł": 4620,
      "77": 4621,
      "įëĭĪëĭ¤": 4622,
      "Ġshows": 4623,
      "Ġdiag": 4624,
      "65": 4625,
      "ties": 4626,
      "Ġseem": 4627,
      "ession": 4628,
      "49": 4629,
      "Ġrelated": 4630,
      "Ġspecies": 4631,
      "Ġë´": 4632,
      "_PATH": 4633,
      "Ġìłķë³´": 4634,
      "arent": 4635,
      "ëĭµ": 4636,
      "ì§Ģë¥¼": 4637,
      "Ġjour": 4638,
      "Ġbenefits": 4639,
      "Ġbrain": 4640,
      "Ġbase": 4641,
      "Ġfeatures": 4642,
      "Ġir": 4643,
      "ãĥĹ": 4644,
      "è©": 4645,
      "ä¸İ": 4646,
      "ë§ī": 4647,
      "Ġmeaning": 4648,
      "ĠìĿ´ìļ©": 4649,
      "ĠGr": 4650,
      "ìķħ": 4651,
      "_NAME": 4652,
      "/p": 4653,
      "åĸ": 4654,
      "Ġintegr": 4655,
      "Ġann": 4656,
      "ãĤ°": 4657,
      "Ðµ": 4658,
      "ĠâĢ¦": 4659,
      "/null": 4660,
      "198": 4661,
      "Ġcity": 4662,
      "Ġíħ": 4663,
      "ìľ¨": 4664,
      "Ð¾": 4665,
      "éŁ": 4666,
      "Name": 4667,
      "Ġcomplete": 4668,
      "Ġseries": 4669,
      "Ġmultiple": 4670,
      "/${": 4671,
      "ĠëĿ¼": 4672,
      "earch": 4673,
      "Ġallows": 4674,
      "index": 4675,
      "Ġpattern": 4676,
      "ager": 4677,
      "à¹Ħà¸Ľ": 4678,
      "ìĿ´íĦ°": 4679,
      "anks": 4680,
      "Ġprevious": 4681,
      "Ġmanagement": 4682,
      "å¢": 4683,
      "Ġreview": 4684,
      "à¸Ľà¸£à¸°": 4685,
      "Ġqua": 4686,
      "output": 4687,
      "ĠìĹĨëĬĶ": 4688,
      "ĠnÄĥng": 4689,
      "Qu": 4690,
      "room": 4691,
      "ÂłìŀĪ": 4692,
      "_data": 4693,
      "Ġcases": 4694,
      "Ġìłľê³µ": 4695,
      "met": 4696,
      "ìĤ´": 4697,
      "Ġdest": 4698,
      "CE": 4699,
      "curity": 4700,
      "_RE": 4701,
      "Ġrecogn": 4702,
      "check": 4703,
      "Ġeval": 4704,
      "UL": 4705,
      "iddle": 4706,
      "AM": 4707,
      "SION": 4708,
      "istics": 4709,
      "Ġeveryone": 4710,
      "light": 4711,
      "-g": 4712,
      "Ġyet": 4713,
      "Ġmedia": 4714,
      "Ġforce": 4715,
      "KE": 4716,
      "Ġnut": 4717,
      "à¸´à¸Ķ": 4718,
      "En": 4719,
      "Ġmaintain": 4720,
      "var": 4721,
      "ĠDes": 4722,
      "Ġfive": 4723,
      "ãģĦãģŁ": 4724,
      "Ġstay": 4725,
      "ê¸Ģ": 4726,
      "Ġcollect": 4727,
      "Ġste": 4728,
      "Ġstandard": 4729,
      "ĠAss": 4730,
      "aff": 4731,
      "ë¦¬ê°Ģ": 4732,
      "Ġsat": 4733,
      "astic": 4734,
      "Ġnetwork": 4735,
      "\\$": 4736,
      "aving": 4737,
      "Ġstarted": 4738,
      "88": 4739,
      "03": 4740,
      "ëıħ": 4741,
      "Ġbring": 4742,
      "Ġpriv": 4743,
      "æ°´": 4744,
      "Ġmembers": 4745,
      "å°ĳ": 4746,
      "Ġweb": 4747,
      "Ġgroups": 4748,
      "áº¡ng": 4749,
      "()ĊĊ": 4750,
      "Ġnormal": 4751,
      "Ġì´": 4752,
      "ĠëĲ©ëĭĪëĭ¤": 4753,
      "md": 4754,
      "Ġos": 4755,
      "ìłĳ": 4756,
      "æ¼": 4757,
      "ãĤĪãģĨ": 4758,
      "eb": 4759,
      "ä¿Ŀ": 4760,
      "Ġtools": 4761,
      "Ġexec": 4762,
      "ool": 4763,
      "Ġactivity": 4764,
      "Ġreduce": 4765,
      "èĲ": 4766,
      "hemat": 4767,
      "Ġthemselves": 4768,
      "Ġeff": 4769,
      "Res": 4770,
      "ĠëĲł": 4771,
      "á»įi": 4772,
      "ë´ī": 4773,
      "Ġhttps": 4774,
      "ges": 4775,
      "Ġëĭ¤ìĭľ": 4776,
      "è§Ĩ": 4777,
      "Ġlá»Ľ": 4778,
      "ĠEar": 4779,
      "urope": 4780,
      "çī¹": 4781,
      "inux": 4782,
      "Ġdá»±": 4783,
      "ĠAf": 4784,
      "List": 4785,
      "Ġliving": 4786,
      "ners": 4787,
      "ì¸µ": 4788,
      "}}": 4789,
      "Ġhowever": 4790,
      "ãĤµ": 4791,
      "Ġequal": 4792,
      "rew": 4793,
      "Ġwhite": 4794,
      "ê°ĢëĬĶ": 4795,
      "ì³": 4796,
      "avor": 4797,
      "Ġscript": 4798,
      "æľŁ": 4799,
      "(f": 4800,
      "Ġrespect": 4801,
      "ister": 4802,
      "Ġsaf": 4803,
      "47": 4804,
      "à¸Ħà¸£": 4805,
      "Ġdiv": 4806,
      "Ġê·¸ëŁ¬": 4807,
      "Ġdesigned": 4808,
      "é¦": 4809,
      "ìķĺëĭ¤": 4810,
      "/lib": 4811,
      "Ġmath": 4812,
      "chan": 4813,
      "ë¡ľìļ´": 4814,
      "Ġcompon": 4815,
      "Ġì¤Ģ": 4816,
      "à¹īà¸Ńà¸ĩ": 4817,
      "Ġimplement": 4818,
      "æ¬¡": 4819,
      "âĢĻs": 4820,
      "à¹Īà¸²": 4821,
      "Ġìĺ¨": 4822,
      "Ġsurface": 4823,
      "ìĿ´íĬ¸": 4824,
      "Ġoccur": 4825,
      "ìĸ´ìĦľ": 4826,
      "Ð°": 4827,
      ".set": 4828,
      "Ġroot": 4829,
      "Ġhold": 4830,
      "idered": 4831,
      "ley": 4832,
      "ä¿¡": 4833,
      "Ġago": 4834,
      "Ãºp": 4835,
      "uyÃªn": 4836,
      "-h": 4837,
      "Ġì¡": 4838,
      "aily": 4839,
      "istance": 4840,
      "66": 4841,
      "Ġemot": 4842,
      "Ġsuggest": 4843,
      "íķĺìĭľ": 4844,
      "Ġpub": 4845,
      "ĠphÃ¡t": 4846,
      "Ġfinancial": 4847,
      "Ġhalf": 4848,
      "Ġerror": 4849,
      "off": 4850,
      "Ĵ¤": 4851,
      "Ġwritten": 4852,
      "resp": 4853,
      "ĠAI": 4854,
      "Ġincludes": 4855,
      "Ġcard": 4856,
      "ĠTrue": 4857,
      "Ġparam": 4858,
      "ãģĤãĤĭ": 4859,
      "ube": 4860,
      ".n": 4861,
      "æŀľ": 4862,
      "Ġfamil": 4863,
      "ëĵ¤ìĹĲê²Į": 4864,
      "á»ĩnh": 4865,
      "cp": 4866,
      "Ġhealthy": 4867,
      "Ġchoose": 4868,
      "just": 4869,
      "Ġ\\$": 4870,
      "Ġissue": 4871,
      "ç¬¬": 4872,
      "Ġparts": 4873,
      "èµ·": 4874,
      "Ġpopulation": 4875,
      "ults": 4876,
      "cat": 4877,
      "NT": 4878,
      "tic": 4879,
      "_list": 4880,
      ".org": 4881,
      "Ġcommand": 4882,
      "Ġge": 4883,
      "çł": 4884,
      "á»£": 4885,
      "Ġskin": 4886,
      "Ġblock": 4887,
      "eds": 4888,
      "Ġsafe": 4889,
      "ecause": 4890,
      "æıĲ": 4891,
      "à¹īà¸Ń": 4892,
      "Ġmethods": 4893,
      "iment": 4894,
      "ä»£": 4895,
      "osing": 4896,
      "âĪ": 4897,
      "æ¨": 4898,
      "ĠìŀĪìĿĦ": 4899,
      "ëŀľ": 4900,
      "Ġchem": 4901,
      "Ġê²Ģ": 4902,
      "umber": 4903,
      "æĽ´": 4904,
      "left": 4905,
      "Ġindustry": 4906,
      "Ġbasic": 4907,
      "ĠnháºŃn": 4908,
      "Ġtá»±": 4909,
      "-st": 4910,
      "Ġcompan": 4911,
      "ĠìķĦëĭ": 4912,
      "Ar": 4913,
      "äº§": 4914,
      "95": 4915,
      "Ġconsidered": 4916,
      ".st": 4917,
      "ĠìĦłíĥĿ": 4918,
      "Ġclose": 4919,
      "Ġmillion": 4920,
      "Ġíĺķ": 4921,
      "Ġtool": 4922,
      "fort": 4923,
      "ribution": 4924,
      "Ġbar": 4925,
      "uration": 4926,
      "Ġremain": 4927,
      "Ġrunning": 4928,
      "åĽ¾": 4929,
      "ender": 4930,
      "emic": 4931,
      "Ġ->": 4932,
      "iÃªu": 4933,
      "Ġtu": 4934,
      "ground": 4935,
      "Ġcommit": 4936,
      "ĠìĹ¬ëŁ¬": 4937,
      "Ġlonger": 4938,
      "uf": 4939,
      "Ġglobal": 4940,
      "Ġsed": 4941,
      "ìĿµ": 4942,
      "æŃ£": 4943,
      "æ·": 4944,
      "ĠëĶĶ": 4945,
      "Ġê¹Ģ": 4946,
      "return": 4947,
      "Ġmonths": 4948,
      "è¦ĭ": 4949,
      "Ã¡y": 4950,
      "Ġsound": 4951,
      "Ġanh": 4952,
      "Ġì£": 4953,
      "èº«": 4954,
      "ĠCO": 4955,
      "ê²łìĬµëĭĪëĭ¤": 4956,
      "Ġtaken": 4957,
      "job": 4958,
      "Error": 4959,
      "ops": 4960,
      "Ġsex": 4961,
      "Ġfit": 4962,
      "Ġíŀĺ": 4963,
      "åİ»": 4964,
      "dis": 4965,
      "Ġuses": 4966,
      "Ġì±Ħ": 4967,
      "ì¹¨": 4968,
      "Ġcontinu": 4969,
      "áº¥u": 4970,
      "Ġoil": 4971,
      "Ġëĭ¤ìĿĮ": 4972,
      "Ġeffort": 4973,
      ")/": 4974,
      "Ġë°Ķë¡ľ": 4975,
      "ĠgÃ¬": 4976,
      "ī´": 4977,
      "à¸ł": 4978,
      "ensive": 4979,
      "Ġcells": 4980,
      "ening": 4981,
      "Ġaccording": 4982,
      "Ġelements": 4983,
      "Ġpháº©m": 4984,
      "ĠlÃ½": 4985,
      "format": 4986,
      "Ġoption": 4987,
      "į¼": 4988,
      "come": 4989,
      "ĠìŀĦ": 4990,
      "unch": 4991,
      "Ġrout": 4992,
      "Ġunit": 4993,
      "Ġsun": 4994,
      "ĠI've": 4995,
      "Ġestab": 4996,
      "ê¸°ëĬĶ": 4997,
      "è³": 4998,
      "ìĦ±ìĿĦ": 4999,
      "çŁ¥": 5000,
      "apter": 5001,
      "Ġìĸ¸": 5002,
      "sudo": 5003,
      "æķĻ": 5004,
      "enn": 5005,
      "ãģ«ãģª": 5006,
      "ĠMed": 5007,
      "éĸĵ": 5008,
      "Ġcame": 5009,
      "íĪ¬": 5010,
      "áº£m": 5011,
      "ì½": 5012,
      "íĻķ": 5013,
      "Ġliter": 5014,
      ")čĊ": 5015,
      "overed": 5016,
      "à¸į": 5017,
      "Ġalmost": 5018,
      "Ġperfect": 5019,
      "inks": 5020,
      "Ġpret": 5021,
      "ì±ħ": 5022,
      "ĠìĤ¬ëŀĳ": 5023,
      "å¾Ī": 5024,
      "aged": 5025,
      "Ġì±ħ": 5026,
      "á»«": 5027,
      "Ġê±´ê°ķ": 5028,
      "Ġcháº¥t": 5029,
      "ĠMar": 5030,
      "Ġsepar": 5031,
      ");Ċ": 5032,
      "ĠëĦĪë¬´": 5033,
      "46": 5034,
      "Ġstructure": 5035,
      "Ġmor": 5036,
      "Ġìĸ¼": 5037,
      "ìķł": 5038,
      "Ġgian": 5039,
      "Ġ;;Ċ": 5040,
      "Ġpict": 5041,
      "Ġgames": 5042,
      "eters": 5043,
      "ales": 5044,
      "ĠlÆ°á»£ng": 5045,
      "ĠHere": 5046,
      "Ġwrong": 5047,
      "Ġthey're": 5048,
      "Ġ$(": 5049,
      "ì·¨": 5050,
      "Ġnature": 5051,
      "Ġplants": 5052,
      "des": 5053,
      "ĠUs": 5054,
      "æĥ³": 5055,
      "DO": 5056,
      "åħ¶": 5057,
      "æ¯Ķ": 5058,
      "ìĿ´ì§Ģ": 5059,
      "PO": 5060,
      "Ġprovided": 5061,
      "Ġur": 5062,
      ".w": 5063,
      "Ġtravel": 5064,
      "Ġdevice": 5065,
      ".txt": 5066,
      "Ġclaim": 5067,
      "\\n": 5068,
      "ĠkhÃ¡ch": 5069,
      "Ġmedical": 5070,
      "icial": 5071,
      "Ġrev": 5072,
      "Ġcondition": 5073,
      "EL": 5074,
      "åľº": 5075,
      "Ġê·¸ëŁ°": 5076,
      "ĠÂ": 5077,
      "Ġminutes": 5078,
      "ãĥ¡": 5079,
      "Ġevents": 5080,
      "Ġground": 5081,
      "elds": 5082,
      "host": 5083,
      "à¸¨": 5084,
      "aced": 5085,
      "ì¡´": 5086,
      "Ġbooks": 5087,
      "rame": 5088,
      "ĠNe": 5089,
      "Ġlives": 5090,
      "ura": 5091,
      "ãģ°": 5092,
      "ìĺĢëĭ¤": 5093,
      "ĠViá»ĩt": 5094,
      "pec": 5095,
      "Ġapplication": 5096,
      "à¸¹à¹ī": 5097,
      "Ġcru": 5098,
      "ĠÃ´ng": 5099,
      "Ġhost": 5100,
      "Ġmiss": 5101,
      "ãģĺ": 5102,
      "Ġq": 5103,
      "ê°Ģì§Ģ": 5104,
      "Ġëª¨ëĳĲ": 5105,
      "Ġextra": 5106,
      "Ġelement": 5107,
      "Ġìĵ°": 5108,
      "èĢģ": 5109,
      ".l": 5110,
      "è¿ĺ": 5111,
      "Ġgain": 5112,
      "Ġmaterials": 5113,
      "å°Ĩ": 5114,
      "wl": 5115,
      "Ġitself": 5116,
      "Ġcam": 5117,
      "Ġtemperature": 5118,
      "like": 5119,
      "à¹īà¸²à¸": 5120,
      ");": 5121,
      "Ġaccept": 5122,
      "/bash": 5123,
      "ĠíĮĲ": 5124,
      "Ġgrep": 5125,
      "ãģ¨ãģĦãģĨ": 5126,
      "Ġcomplet": 5127,
      "Ġnothing": 5128,
      "á»ĩn": 5129,
      "ĠCar": 5130,
      "åħ³": 5131,
      "ĠgiÃºp": 5132,
      "ounter": 5133,
      "ĠtrÆ°á»Ľc": 5134,
      "æĴ": 5135,
      "ĨĴ": 5136,
      "EO": 5137,
      "Ġseems": 5138,
      "Ġdeep": 5139,
      "Ġmessage": 5140,
      "ĠAm": 5141,
      "Is": 5142,
      "Ġrandom": 5143,
      "ithub": 5144,
      "Do": 5145,
      "{\\": 5146,
      "Ġthere's": 5147,
      "à¸Ńà¸ģ": 5148,
      "à¹Ĩ": 5149,
      "ä½į": 5150,
      "Ġstreng": 5151,
      "ipl": 5152,
      "Ġda": 5153,
      "'ĊĊ": 5154,
      "ì¡Į": 5155,
      "ĠíķľêµŃ": 5156,
      "ħn": 5157,
      "å±ķ": 5158,
      "idth": 5159,
      "çľŁ": 5160,
      "ë¹ĦìĬ¤": 5161,
      "Ġidentify": 5162,
      "Ġarch": 5163,
      "æĮģ": 5164,
      "atory": 5165,
      "/g": 5166,
      "Ġì§Ī": 5167,
      "Ġcontext": 5168,
      "pi": 5169,
      "ç¤¾": 5170,
      "Ġproduction": 5171,
      "-in": 5172,
      "estion": 5173,
      "á»¯a": 5174,
      "Ġcountries": 5175,
      "END": 5176,
      "éĩĮ": 5177,
      "å¹³": 5178,
      "Ġmodels": 5179,
      "Ġsoftware": 5180,
      "iter": 5181,
      "oon": 5182,
      "Ã¨": 5183,
      "Ġoriginal": 5184,
      "ĠThen": 5185,
      "éķ¿": 5186,
      "Ġprofessional": 5187,
      "äº¤": 5188,
      "åĪ¶": 5189,
      "ĠtrÃ¬nh": 5190,
      "ixed": 5191,
      "Ġfriend": 5192,
      "ĠEurope": 5193,
      "Ġslow": 5194,
      "ptoms": 5195,
      "Ġusers": 5196,
      "Ġconcern": 5197,
      "-to": 5198,
      "ĠPer": 5199,
      "Ãºt": 5200,
      "ä»¶": 5201,
      "AGE": 5202,
      "Ġfast": 5203,
      "ç²": 5204,
      "Ġfoot": 5205,
      "æ´»": 5206,
      "vant": 5207,
      "Ġmáº·t": 5208,
      "ë¸Ķ": 5209,
      "Ġattack": 5210,
      "Ġsyn": 5211,
      "VERSION": 5212,
      "Ġcontact": 5213,
      "Ġnight": 5214,
      "ged": 5215,
      "Ġwalk": 5216,
      "ĠÄĳá»ĳi": 5217,
      "Ġenh": 5218,
      "Ġì¹ľ": 5219,
      "Ġsomet": 5220,
      "ĠAfter": 5221,
      "Ġconstant": 5222,
      "ëĦ¤ìļĶ": 5223,
      "Ġëĭ´": 5224,
      "Ġideas": 5225,
      "ãĥŀ": 5226,
      "nection": 5227,
      "à¸ĺ": 5228,
      "ãģķãĤĮ": 5229,
      "âĢ¦âĢ¦": 5230,
      "ĠìľĦíķľ": 5231,
      "Ġcou": 5232,
      "ĠhÃłnh": 5233,
      "Ġyou'll": 5234,
      "sequ": 5235,
      "Ġlines": 5236,
      "Ġë¡ľ": 5237,
      "ĠGu": 5238,
      "Ġroom": 5239,
      "Ġheat": 5240,
      "½ĥ": 5241,
      "çº¿": 5242,
      "ĠíķŃ": 5243,
      "Ġíģ´": 5244,
      "ĠÃ½": 5245,
      "ãĤį": 5246,
      "ĠAfric": 5247,
      "Ġassociated": 5248,
      "IG": 5249,
      "ĠthÆ°á»Ŀng": 5250,
      "erver": 5251,
      "TS": 5252,
      "ê°Ŀ": 5253,
      "ae": 5254,
      "ĉfi": 5255,
      "su": 5256,
      "One": 5257,
      "ATCH": 5258,
      "íĮħ": 5259,
      "Ġëł": 5260,
      "Ġthinking": 5261,
      "ìĿ´ëĿ¼ëĬĶ": 5262,
      "ĠìĿ´ìķ¼": 5263,
      "ĠĠĠĠĊ": 5264,
      "Ġeasily": 5265,
      "}/${": 5266,
      "è¨Ģ": 5267,
      "oo": 5268,
      "Ġprep": 5269,
      "ç¦": 5270,
      "Ġones": 5271,
      "ĠWorld": 5272,
      "Ġanaly": 5273,
      "Ġquite": 5274,
      "Ġnam": 5275,
      "Se": 5276,
      "Ġíĸ¥": 5277,
      "ÂłÂłÂł": 5278,
      "Ġinitial": 5279,
      "ĠWhile": 5280,
      "erson": 5281,
      "Ġvariety": 5282,
      "Ġep": 5283,
      "Ġoutside": 5284,
      "ĠÎ": 5285,
      "Ġball": 5286,
      "`Ċ": 5287,
      "85": 5288,
      "ĠtoÃłn": 5289,
      "Ġcamp": 5290,
      "ìĶ¨": 5291,
      "Im": 5292,
      "array": 5293,
      "çģ": 5294,
      "Ġeat": 5295,
      ".e": 5296,
      "èµĦ": 5297,
      "Ġinside": 5298,
      "è¢«": 5299,
      "Ġfunctions": 5300,
      "æ¡": 5301,
      "íĿ¬": 5302,
      "ĠSte": 5303,
      "ãĤŃ": 5304,
      "umb": 5305,
      "ĠNational": 5306,
      "Ġhor": 5307,
      "Ġdocument": 5308,
      "ãģŃ": 5309,
      "#Ċ": 5310,
      "ĠviÃªn": 5311,
      "ĠëĤ´ê°Ģ": 5312,
      "ëĭĪê¹Į": 5313,
      ".add": 5314,
      "Ġsubst": 5315,
      "lear": 5316,
      "ê²¬": 5317,
      "Ġsn": 5318,
      "Ġë³¼": 5319,
      "Ġbox": 5320,
      "Ġemail": 5321,
      "Ġìłĳ": 5322,
      "Ġdiet": 5323,
      "Ġrequest": 5324,
      "Ġë²ķ": 5325,
      "oved": 5326,
      "à¸ģà¹ĩ": 5327,
      "ement": 5328,
      "Ġstates": 5329,
      "Ġshown": 5330,
      "Ġcreating": 5331,
      "Ġobserv": 5332,
      "ç³»": 5333,
      "ĠFl": 5334,
      "Ķëĭ¤": 5335,
      "Ġbáº±ng": 5336,
      "ĠìķĮìķĦ": 5337,
      "ĠIntern": 5338,
      "une": 5339,
      "html": 5340,
      "Ġexpress": 5341,
      "ĠWhy": 5342,
      "Ġlen": 5343,
      "uth": 5344,
      "Ġdate": 5345,
      "Ġloáº¡i": 5346,
      "zz": 5347,
      "ì´": 5348,
      "EX": 5349,
      "Ġautom": 5350,
      "197": 5351,
      "anch": 5352,
      "Ġorigin": 5353,
      "ĠnhiÃªn": 5354,
      "bon": 5355,
      "Ġdetermine": 5356,
      "¿Ī": 5357,
      "sych": 5358,
      "åħĥ": 5359,
      "èĦ": 5360,
      "Ġì·¨": 5361,
      "Ġìĸ´ëĸ¤": 5362,
      "Ġinteract": 5363,
      "gor": 5364,
      "=`": 5365,
      "rade": 5366,
      "Ġassess": 5367,
      "ĠìłĪ": 5368,
      "ãģĦãģ¦": 5369,
      "Ġbáº£o": 5370,
      "ĠtÃ¢m": 5371,
      "rown": 5372,
      "build": 5373,
      "å»º": 5374,
      "Ġindex": 5375,
      "Ġfill": 5376,
      "Ġtáº¡o": 5377,
      "Ġbehavior": 5378,
      "Ġtrack": 5379,
      "ervice": 5380,
      "ëŁ½": 5381,
      "Ġtook": 5382,
      "uly": 5383,
      "Ġmodern": 5384,
      "ãģĤãĤĬ": 5385,
      "Ġattention": 5386,
      "æ®": 5387,
      "Ġcover": 5388,
      "No": 5389,
      "Ġsometimes": 5390,
      "ĠPe": 5391,
      "wise": 5392,
      "reed": 5393,
      "Ġelif": 5394,
      "Ġencou": 5395,
      "ÂłìĪĺ": 5396,
      "à¸«à¸£": 5397,
      "éĹ´": 5398,
      "Ġfat": 5399,
      "deb": 5400,
      "ball": 5401,
      "=(": 5402,
      "Ġthroughout": 5403,
      "ç¶": 5404,
      "amples": 5405,
      "Ġfriends": 5406,
      "ĠìķĦëĭĪëĿ¼": 5407,
      "ception": 5408,
      "iff": 5409,
      "á»Ĺ": 5410,
      "ĠtÃ¬nh": 5411,
      "ëĤĺëĬĶ": 5412,
      "Ġdefin": 5413,
      "ãģĶ": 5414,
      "Ġcáº¥p": 5415,
      "ana": 5416,
      "Ġstring": 5417,
      "Ġë°ľìĥĿ": 5418,
      "ĠÄĳiá»ĥm": 5419,
      "ìĺ¬": 5420,
      "Ġstat": 5421,
      "SP": 5422,
      "Ġoffers": 5423,
      "Ġid": 5424,
      "point": 5425,
      "Ġregard": 5426,
      "æĤ": 5427,
      "_size": 5428,
      "ĠAb": 5429,
      "ãħİ": 5430,
      "à¸Ĺà¸³": 5431,
      "default": 5432,
      "Ġax": 5433,
      "Ġachieve": 5434,
      "ìĤ¬ë¥¼": 5435,
      "Ġì»¤": 5436,
      "Ġfire": 5437,
      "Ġprograms": 5438,
      "Ġculture": 5439,
      "åıĸ": 5440,
      "Ġwin": 5441,
      "ster": 5442,
      "Cont": 5443,
      "Ġtá»ĳt": 5444,
      "duc": 5445,
      "Ad": 5446,
      "It's": 5447,
      "pper": 5448,
      "æ°Ĺ": 5449,
      "ĠëĮĢíķ´": 5450,
      "Ġspeak": 5451,
      "ÂłìĤ¬": 5452,
      "Ġrow": 5453,
      "ë¶ģ": 5454,
      "Ġcd": 5455,
      "ë¯Ģë¡ľ": 5456,
      "nown": 5457,
      "çı": 5458,
      "Ġchoice": 5459,
      "Ġplatform": 5460,
      "irection": 5461,
      "irm": 5462,
      "board": 5463,
      "Ġhoáº·c": 5464,
      "Ġsteps": 5465,
      "Ġ<<": 5466,
      "éĩı": 5467,
      "íĸĪìĬµëĭĪëĭ¤": 5468,
      "ĠAct": 5469,
      "iques": 5470,
      "å¼ı": 5471,
      "ĠOf": 5472,
      "èĥ": 5473,
      "åħĪ": 5474,
      "Ġìļ©": 5475,
      "42": 5476,
      "TH": 5477,
      "da": 5478,
      "Ġtim": 5479,
      "æ°ĳ": 5480,
      "áº¯ng": 5481,
      "Ġhot": 5482,
      "asc": 5483,
      "-based": 5484,
      "Ġprinc": 5485,
      "asons": 5486,
      "éĤ£": 5487,
      "image": 5488,
      "íĬ¹": 5489,
      "çĹ": 5490,
      "done": 5491,
      "ĠLet": 5492,
      "ê³³": 5493,
      "Ġgives": 5494,
      "db": 5495,
      "ports": 5496,
      "clusion": 5497,
      "Ġconsist": 5498,
      "Ġthiáº¿t": 5499,
      "Ġdigital": 5500,
      "Ġpick": 5501,
      "ëĲ©ëĭĪëĭ¤": 5502,
      "Ġngo": 5503,
      "ĠìĹħ": 5504,
      "Ġtiáº¿p": 5505,
      "à¹Ģà¸ŀ": 5506,
      "([": 5507,
      "į¨": 5508,
      "PS": 5509,
      "è§£": 5510,
      "Ġcompanies": 5511,
      "åĽł": 5512,
      "Ġgoes": 5513,
      "æµ·": 5514,
      "ĠëĦĺ": 5515,
      "python": 5516,
      "yp": 5517,
      "âĹ": 5518,
      "Ġbehind": 5519,
      "Ġsave": 5520,
      "mission": 5521,
      "ĠJohn": 5522,
      "Ġlif": 5523,
      "Ġtas": 5524,
      "ocks": 5525,
      "ľ´": 5526,
      "_g": 5527,
      "59": 5528,
      "ĠëģĿ": 5529,
      "à¸«à¸¥": 5530,
      "Ġkáº¿t": 5531,
      "ìłķìĿĦ": 5532,
      "Ġê²ĥìŀħëĭĪëĭ¤": 5533,
      "_r": 5534,
      "éĶ": 5535,
      "ĠëıĦìĽ": 5536,
      "rack": 5537,
      "gorith": 5538,
      "Æ°á»Ľng": 5539,
      "oke": 5540,
      "à¹Ģà¸Ĥ": 5541,
      "Ġcolumn": 5542,
      "å¸¸": 5543,
      "Ġsecurity": 5544,
      "Why": 5545,
      "ouch": 5546,
      "ç±": 5547,
      "ried": 5548,
      "ëł¸": 5549,
      "åĮº": 5550,
      "ĠSu": 5551,
      "åł´": 5552,
      "Ġquickly": 5553,
      "ëł¥ìĿĦ": 5554,
      "Ġfront": 5555,
      "à¸£à¸´": 5556,
      "Ã³a": 5557,
      "Ġdistance": 5558,
      "Ġbeaut": 5559,
      "Ġì§Ħíĸī": 5560,
      "angle": 5561,
      "ëŀĺìĦľ": 5562,
      "Ġflu": 5563,
      "Ġxuáº¥t": 5564,
      "Ġvá»¥": 5565,
      "¾¸": 5566,
      "ãĥĨ": 5567,
      "ĉĉĉĉ": 5568,
      "ä¸Ģä¸ª": 5569,
      "Ġbá»Ļ": 5570,
      "Ġaspect": 5571,
      "aches": 5572,
      "Ġvá»ĭ": 5573,
      "Ġ+=": 5574,
      "anc": 5575,
      "=/": 5576,
      "Ġíĥľ": 5577,
      "ìĥĪ": 5578,
      "Ġdru": 5579,
      "Ġhiá»ĩu": 5580,
      "ND": 5581,
      "Ġexamples": 5582,
      "RA": 5583,
      "Be": 5584,
      "dom": 5585,
      "ĠComp": 5586,
      "Ġë¹ł": 5587,
      "ëłĪìĿ´": 5588,
      "ĠNow": 5589,
      "mber": 5590,
      "400": 5591,
      "hens": 5592,
      "Ġanyone": 5593,
      "By": 5594,
      "ATE": 5595,
      "ino": 5596,
      "Ġëª¨ìĬµ": 5597,
      "à¸©": 5598,
      "ĠváºŃy": 5599,
      "box": 5600,
      "}$": 5601,
      "Ġwatch": 5602,
      "ĠëĴ¤": 5603,
      "=True": 5604,
      "Ġvariable": 5605,
      "78": 5606,
      ")ĊĊĊ": 5607,
      "Ġcook": 5608,
      "Ġclos": 5609,
      "Ġstudies": 5610,
      "/sh": 5611,
      "ribute": 5612,
      "ided": 5613,
      "gar": 5614,
      "Ġsequ": 5615,
      "itude": 5616,
      "Ġevidence": 5617,
      "Ġnghiá»ĩp": 5618,
      "mar": 5619,
      "ê°Ī": 5620,
      "Ġaff": 5621,
      "ony": 5622,
      "éĽĨ": 5623,
      "ĠFalse": 5624,
      "Ġhom": 5625,
      "Ġstyle": 5626,
      "ëĲł": 5627,
      "ĠGe": 5628,
      "ĠtÃŃnh": 5629,
      "åı°": 5630,
      "isions": 5631,
      "...Ċ": 5632,
      "ìŀĲìĿĺ": 5633,
      "Ġfinal": 5634,
      "Ġpatients": 5635,
      "Ġmoment": 5636,
      "Ġteachers": 5637,
      "Ġ$\\": 5638,
      "à¸±à¹īà¸ĩ": 5639,
      "Ġanimals": 5640,
      "Ġdisplay": 5641,
      "Ġsection": 5642,
      "Âłê·¸": 5643,
      "ĠtÆ°": 5644,
      "ĠPar": 5645,
      "Ġpretty": 5646,
      "Ġschools": 5647,
      "Ġsymptoms": 5648,
      "ì°½": 5649,
      "unt": 5650,
      "ĠHis": 5651,
      "ĠWar": 5652,
      "Ġadded": 5653,
      "ĠVal": 5654,
      "áº¡ch": 5655,
      "Ġvisit": 5656,
      "ê¸´": 5657,
      "ë¦´": 5658,
      "ì³Ĳ": 5659,
      "ļį": 5660,
      "åĥ": 5661,
      "ASE": 5662,
      "coming": 5663,
      "uel": 5664,
      "raction": 5665,
      "Ġupdate": 5666,
      "src": 5667,
      "ìħ¨": 5668,
      "Ġupon": 5669,
      "Ġlá»Ľn": 5670,
      "Ġìķł": 5671,
      "åıĬ": 5672,
      "Ġproperty": 5673,
      "Ġpurch": 5674,
      "_pro": 5675,
      "Ġweeks": 5676,
      "ìĹĶ": 5677,
      "_w": 5678,
      "56": 5679,
      "_F": 5680,
      "\\\"": 5681,
      "ĠtÃ¡c": 5682,
      "ìĿĳ": 5683,
      "ĠëĲľëĭ¤": 5684,
      "ached": 5685,
      "áº£nh": 5686,
      "MO": 5687,
      "à¸ģà¸±à¸ļ": 5688,
      "ĠUse": 5689,
      "Ġtowards": 5690,
      "Ġtheory": 5691,
      "Ġhai": 5692,
      "Ġëıħ": 5693,
      "Ġsociety": 5694,
      "Ġincreasing": 5695,
      "Ġnegative": 5696,
      "aby": 5697,
      "ãĥĲ": 5698,
      "Ġsymb": 5699,
      "Ġsix": 5700,
      "à¹īà¸§": 5701,
      "bit": 5702,
      "Ġprec": 5703,
      "Ġful": 5704,
      "Ġtáº¿": 5705,
      "æ²¡": 5706,
      "á»ĵng": 5707,
      "ÑĤ": 5708,
      "gn": 5709,
      "ä½Ĩ": 5710,
      "indows": 5711,
      "hood": 5712,
      "izes": 5713,
      "Ġcáº£m": 5714,
      "è½¦": 5715,
      "Ġprior": 5716,
      "Ġì²ľ": 5717,
      "Ġremember": 5718,
      "])Ċ": 5719,
      "Ġcentury": 5720,
      "UIL": 5721,
      "abase": 5722,
      "à¸Ļà¸µà¹ī": 5723,
      "erous": 5724,
      "Ġcáº§u": 5725,
      "Ġtá»Ľi": 5726,
      "Ġappl": 5727,
      "¨ìĸ´": 5728,
      "Ġgets": 5729,
      "Ġmang": 5730,
      "Ġpháº§n": 5731,
      "Ġrelig": 5732,
      "ese": 5733,
      "à¹ģà¸ķ": 5734,
      "Ġcancer": 5735,
      "ĠBrit": 5736,
      "Ġsafety": 5737,
      "EC": 5738,
      "ĠëĺĲíķľ": 5739,
      "ellow": 5740,
      "çĭ": 5741,
      "era": 5742,
      "ç¨ĭ": 5743,
      "Ġíķĺì§Ģë§Į": 5744,
      "Ġgreen": 5745,
      "¿Ĳ": 5746,
      "Ġì§ĢìĽĲ": 5747,
      "Ġoverall": 5748,
      "nov": 5749,
      "à¸±à¸§": 5750,
      "Ġhope": 5751,
      "»ê²Į": 5752,
      "Ġinvolved": 5753,
      "ĠdÃ¢n": 5754,
      "clude": 5755,
      "term": 5756,
      "Ġproduce": 5757,
      "åķĨ": 5758,
      "idge": 5759,
      "åĬ¡": 5760,
      "Ġbecame": 5761,
      "urch": 5762,
      "Ġsong": 5763,
      "ç«ĭ": 5764,
      "Ġê´Ģëł¨": 5765,
      "ë¦Ń": 5766,
      "ĠìĤ¼": 5767,
      "Ġê¼": 5768,
      "ä½ķ": 5769,
      "Ġapply": 5770,
      "Ġquant": 5771,
      "Ġdeveloped": 5772,
      "Ġtree": 5773,
      "oph": 5774,
      "ĠcÃ¡i": 5775,
      "Ġì¦Ĳ": 5776,
      "otal": 5777,
      "Ð¸": 5778,
      "Ġcross": 5779,
      "ĳĺ": 5780,
      "Ġframe": 5781,
      "Ġëľ": 5782,
      "Ġarray": 5783,
      "Ġbuilt": 5784,
      "ĠdÃ¹ng": 5785,
      "bed": 5786,
      "Ġdie": 5787,
      "Ġ\"\"\"": 5788,
      "196": 5789,
      "ìŀĲëĬĶ": 5790,
      "äºĮ": 5791,
      "atives": 5792,
      "Ġgreater": 5793,
      "((": 5794,
      "istory": 5795,
      "ç®¡": 5796,
      "áº³": 5797,
      "ìĥģìĿĦ": 5798,
      "ëĺĲ": 5799,
      "Pl": 5800,
      "Ġcontains": 5801,
      "/t": 5802,
      "max": 5803,
      "Ġrequires": 5804,
      "Ġappropri": 5805,
      "à¹Ģà¸Ķ": 5806,
      "Ġuseful": 5807,
      "len": 5808,
      "Ġê²ĥìľ¼ë¡ľ": 5809,
      "Ġequation": 5810,
      "ëŁ¬íķľ": 5811,
      "ê°Ļ": 5812,
      "aly": 5813,
      "Ġremove": 5814,
      "ãĥ»ãĥ»": 5815,
      "ãģķãĤĵ": 5816,
      "ãģĵãģ®": 5817,
      "æİ¥": 5818,
      "ius": 5819,
      "'d": 5820,
      ".h": 5821,
      "irit": 5822,
      "Ġsuff": 5823,
      "Ġthá»ĭ": 5824,
      "orks": 5825,
      "à¸ģà¸¥": 5826,
      "Ġwent": 5827,
      "..ĊĊ": 5828,
      "ĠLear": 5829,
      "Ġhá»Ļi": 5830,
      "ils": 5831,
      "Ġrefer": 5832,
      "ĠìĿ´ëŁ°": 5833,
      "Ġváº«n": 5834,
      "ĠquÃ¡": 5835,
      "Ġì¢ĭìķĦ": 5836,
      "ĠFrom": 5837,
      "ada": 5838,
      "çĽ´": 5839,
      "Ġcopy": 5840,
      "script": 5841,
      "arily": 5842,
      "ĠëĤ´ìļ©": 5843,
      "Ġmemory": 5844,
      "Ġheav": 5845,
      "Ġquáº£": 5846,
      "ĠÄĥn": 5847,
      "Ġformat": 5848,
      "Ġfish": 5849,
      "Ġkinh": 5850,
      "lete": 5851,
      "ä¹Ī": 5852,
      "åĲĳ": 5853,
      "ĠAmerica": 5854,
      "IM": 5855,
      "Ġtask": 5856,
      "enge": 5857,
      "ĠëĺĲëĬĶ": 5858,
      "ĠDr": 5859,
      "Ġnay": 5860,
      "ç¤º": 5861,
      "å¾Į": 5862,
      "43": 5863,
      "Ġthird": 5864,
      "ĠìĥģíĻ©": 5865,
      "Ġráº±ng": 5866,
      "Ġassign": 5867,
      "??": 5868,
      "Ġmechan": 5869,
      "Ġrat": 5870,
      "Ġlimit": 5871,
      "ĠHealth": 5872,
      "å±±": 5873,
      "Ġdirectly": 5874,
      "-r": 5875,
      "Ġì§Ģê¸Ī": 5876,
      "Ã³ng": 5877,
      "Ġscreen": 5878,
      "Ġraise": 5879,
      "åı£": 5880,
      "_FILE": 5881,
      "Ġ//": 5882,
      "cret": 5883,
      "Ġchá»§": 5884,
      "à¸£à¸²à¸": 5885,
      "Ġincreased": 5886,
      "Ġconduct": 5887,
      "é©": 5888,
      "Ġmatch": 5889,
      "Ġadditional": 5890,
      "Ġsituation": 5891,
      "Ġbáº£n": 5892,
      "None": 5893,
      "Ġdepend": 5894,
      "à¸Īà¸²à¸ģ": 5895,
      "_G": 5896,
      "ĠMore": 5897,
      "ì°©": 5898,
      "Ġvalid": 5899,
      "à¹Ģà¸«": 5900,
      "ĠíĨł": 5901,
      "Ġstatus": 5902,
      "íķĺì§Ģë§Į": 5903,
      "ìĦ±ìĿ´": 5904,
      "á»Ńa": 5905,
      "Us": 5906,
      "Ġgir": 5907,
      "Ġdaily": 5908,
      "Ġchá»įn": 5909,
      "Ġgas": 5910,
      "ught": 5911,
      "():Ċ": 5912,
      "ãģ§ãģ¯": 5913,
      "ì£¼ëĬĶ": 5914,
      "à¸Ńà¸Ļ": 5915,
      "Ġcapt": 5916,
      "150": 5917,
      "Ġdamage": 5918,
      "Ġintern": 5919,
      "Ġhands": 5920,
      "Æ°ng": 5921,
      "oice": 5922,
      "Ġshape": 5923,
      "ĠDep": 5924,
      "IV": 5925,
      "imately": 5926,
      "èį": 5927,
      "ĠPart": 5928,
      "ìĹ¼": 5929,
      "Ġmental": 5930,
      "á»įng": 5931,
      "ì±Ħ": 5932,
      "rt": 5933,
      "etic": 5934,
      "Ġnote": 5935,
      "urance": 5936,
      "Ġstri": 5937,
      "Ġteaching": 5938,
      "aling": 5939,
      "?\"": 5940,
      "à¸±à¸Ķ": 5941,
      "Ġcommunication": 5942,
      "Ġfund": 5943,
      "ì¸ł": 5944,
      "pre": 5945,
      "à¸¡à¸²à¸": 5946,
      "ĠSim": 5947,
      "eration": 5948,
      "Ġwon't": 5949,
      "ownload": 5950,
      "è¥": 5951,
      "Łģ": 5952,
      "Ġê°Ģê²©": 5953,
      "mm": 5954,
      "info": 5955,
      "41": 5956,
      "(c": 5957,
      "Ġgoal": 5958,
      "Ġë°±": 5959,
      "Ġaltern": 5960,
      "ìĭĿìĿĦ": 5961,
      "Ġnode": 5962,
      "DB": 5963,
      ".)": 5964,
      "ĠPol": 5965,
      "ĠëĲĺëĬĶ": 5966,
      "amin": 5967,
      "Ġì°½": 5968,
      "Ġdim": 5969,
      "All": 5970,
      "Ġrules": 5971,
      "ĠCo": 5972,
      "Ġmuá»ĳn": 5973,
      "Ġexplore": 5974,
      "hib": 5975,
      "email": 5976,
      "wo": 5977,
      "Ġexactly": 5978,
      "ĠìĿ´ìľł": 5979,
      "oub": 5980,
      "ĠëĬĲëĤ": 5981,
      "ĠíħĮ": 5982,
      "Ġproviding": 5983,
      "èŃ": 5984,
      "ĠEarth": 5985,
      "ĠëĤĺëĬĶ": 5986,
      "XX": 5987,
      "Ġbá»ĩnh": 5988,
      "Ġmicro": 5989,
      "Ġitems": 5990,
      "Ġëª¸": 5991,
      "Ġsá»ĳng": 5992,
      "cles": 5993,
      "rage": 5994,
      "éĻ¢": 5995,
      "PL": 5996,
      "Ġgiá»Ľi": 5997,
      "plate": 5998,
      "Ġstore": 5999,
      "pm": 6000,
      "ynam": 6001,
      ",,": 6002,
      "Ġëį°ìĿ´íĦ°": 6003,
      "ãĤ£": 6004,
      "ĠRead": 6005,
      "Ġfactor": 6006,
      "åıĹ": 6007,
      "input": 6008,
      "Data": 6009,
      "ĠSet": 6010,
      "),Ċ": 6011,
      "ĠìĿĺë¯¸": 6012,
      "åı¸": 6013,
      "Ġê°Ī": 6014,
      "WORK": 6015,
      "Ġharm": 6016,
      ")(": 6017,
      "rypt": 6018,
      "íĻĶë¥¼": 6019,
      "Ġcredit": 6020,
      "ĠëłĪ": 6021,
      "Ġimages": 6022,
      "ĠíĪ¬ìŀĲ": 6023,
      "rapy": 6024,
      "rast": 6025,
      "ĠëĦ¤": 6026,
      "roid": 6027,
      "Ġwall": 6028,
      "_type": 6029,
      "Ġì¡´": 6030,
      "ama": 6031,
      "ĠAre": 6032,
      "ĠState": 6033,
      "Ġtiá»ģn": 6034,
      "ãģĿãģ®": 6035,
      "ĠcÃ´": 6036,
      "ÂŃ": 6037,
      "make": 6038,
      "Ġlack": 6039,
      "lim": 6040,
      "Ġíļ¨ê³¼": 6041,
      "ìµľ": 6042,
      "TER": 6043,
      "izer": 6044,
      "æĹł": 6045,
      "ãģ§ãģį": 6046,
      "Ġaccom": 6047,
      "Ġdá»ĭch": 6048,
      "alias": 6049,
      "ìĹĩ": 6050,
      "ĠìĤ¶": 6051,
      "icles": 6052,
      "Ġrm": 6053,
      "cks": 6054,
      ".log": 6055,
      "pen": 6056,
      "ĠìŀĪìĹĪ": 6057,
      "Ġà¹ģà¸¥à¸°": 6058,
      "åİŁ": 6059,
      "Æ°u": 6060,
      "ĠëĤĺíĥĢ": 6061,
      "Ġë§Įëĵ¤ìĸ´": 6062,
      "ui": 6063,
      "Ġprogress": 6064,
      "è»": 6065,
      "ography": 6066,
      "uge": 6067,
      "_v": 6068,
      "Ġdu": 6069,
      "Ġreach": 6070,
      "Ġprote": 6071,
      "DEP": 6072,
      "ev": 6073,
      "Ã¬m": 6074,
      "Ġindepend": 6075,
      "Ġworth": 6076,
      "ìŀĪëĬĶ": 6077,
      "_to": 6078,
      "Ġgenerally": 6079,
      "atest": 6080,
      "Ġpurpose": 6081,
      "ALL": 6082,
      "Ġguide": 6083,
      "ëĥĲ": 6084,
      "ìĿ¸ëį°": 6085,
      "Ġlocation": 6086,
      "vey": 6087,
      "ĠíĸĪëĭ¤": 6088,
      "ĠInt": 6089,
      "æĶ¿": 6090,
      "Ġleave": 6091,
      "'.": 6092,
      "ufact": 6093,
      "Ġtechniques": 6094,
      "ĠCons": 6095,
      "çĶ·": 6096,
      "ìķĶ": 6097,
      "ivil": 6098,
      "Ġhá»ĩ": 6099,
      "Ġë¶Ģë¶Ħ": 6100,
      "åĭķ": 6101,
      "Ġbill": 6102,
      "åŁº": 6103,
      "Ġexpected": 6104,
      "ĠAcc": 6105,
      "MS": 6106,
      "à¸±à¹īà¸Ļ": 6107,
      "Ġinstance": 6108,
      "_add": 6109,
      "Ġfeet": 6110,
      "ç¥ŀ": 6111,
      "EST": 6112,
      "Ġutil": 6113,
      "Ġ\"\\": 6114,
      "Ġadvant": 6115,
      "Ġplease": 6116,
      "Ġ./": 6117,
      "artment": 6118,
      "ê·¹": 6119,
      "ĠDis": 6120,
      "ìľ¼ëĭĪ": 6121,
      ".x": 6122,
      "Ġnames": 6123,
      "è¿ĳ": 6124,
      "Ġcosts": 6125,
      "Ġprop": 6126,
      "istry": 6127,
      "Ġcrucial": 6128,
      "Ġê´ĳ": 6129,
      "sv": 6130,
      "Ġhistor": 6131,
      "á»Łi": 6132,
      "ĠÄĳÆ°á»Ŀng": 6133,
      "year": 6134,
      "á»Ļng": 6135,
      "Ġspread": 6136,
      "à¹Īà¸Ńà¸ĩ": 6137,
      "Ġhttp": 6138,
      "íļį": 6139,
      "Ġtraditional": 6140,
      "ðĿĳ": 6141,
      "æħ": 6142,
      "Ġserver": 6143,
      "ì§ķ": 6144,
      "äºĽ": 6145,
      "ìĿ¸ìĿ´": 6146,
      "Ġfem": 6147,
      "ìŁģ": 6148,
      "ĠíĤ": 6149,
      "Ġopportunity": 6150,
      "à¹Ģà¸Ĺ": 6151,
      "ĠAust": 6152,
      "Ġ}Ċ": 6153,
      "ãģ«ãģ¯": 6154,
      "more": 6155,
      "Ãµ": 6156,
      "ober": 6157,
      ".ex": 6158,
      "orage": 6159,
      "ä¸ĸ": 6160,
      "Ġrecent": 6161,
      "è±": 6162,
      "ìģ": 6163,
      "Ġleaders": 6164,
      "Ġìŀ¡": 6165,
      "Ġasked": 6166,
      "Ġmedic": 6167,
      "Ġwonder": 6168,
      "ëģ¼": 6169,
      "ordin": 6170,
      "ĠGerm": 6171,
      "elt": 6172,
      "ãĥĸ": 6173,
      "With": 6174,
      "ãĥģ": 6175,
      "Ġmention": 6176,
      "Ġexercise": 6177,
      "ĠIN": 6178,
      "à¸£à¹Į": 6179,
      "UP": 6180,
      "Ġï": 6181,
      "ĠíĴį": 6182,
      "__(": 6183,
      "Ġstra": 6184,
      "Ġeyes": 6185,
      "áº©n": 6186,
      "âĳ": 6187,
      "Ġteacher": 6188,
      "pace": 6189,
      "ancy": 6190,
      "ĠEm": 6191,
      "ken": 6192,
      "Ġthá»©c": 6193,
      "ilter": 6194,
      "Ġdemon": 6195,
      "æĶ¾": 6196,
      "Ġtrain": 6197,
      "Ġì£½": 6198,
      "ĠìŀĪê³ł": 6199,
      "ĠWest": 6200,
      "79": 6201,
      "Ġserious": 6202,
      "ĠìŀĪìľ¼ë©°": 6203,
      "ëŀ¨": 6204,
      "Ġcateg": 6205,
      "(p": 6206,
      "íķĺë©´ìĦľ": 6207,
      "Ġregion": 6208,
      "åı¯ä»¥": 6209,
      "Ġreflect": 6210,
      "Ġdecision": 6211,
      "Ġtests": 6212,
      "erve": 6213,
      "ĠnghÄ©": 6214,
      "å¨": 6215,
      "Ġnews": 6216,
      "ares": 6217,
      "ĠìĤ¬ì§Ħ": 6218,
      "Ġsust": 6219,
      "Ġcritical": 6220,
      "ìħĶ": 6221,
      "Ġsample": 6222,
      "é¢ĳ": 6223,
      "Ġinform": 6224,
      "Ġresearc": 6225,
      "}-": 6226,
      "Can": 6227,
      "File": 6228,
      "apan": 6229,
      "-up": 6230,
      "Ġaim": 6231,
      "hern": 6232,
      "èĻ": 6233,
      "Ġtypically": 6234,
      "æł¼": 6235,
      ".r": 6236,
      "CC": 6237,
      "(d": 6238,
      "Ġhab": 6239,
      "Ġpolitical": 6240,
      "íĺ¼": 6241,
      "Ġfigure": 6242,
      "æŃ¤": 6243,
      "iency": 6244,
      "ustr": 6245,
      "ĠìķĬê³ł": 6246,
      "ì¹ľ": 6247,
      "Ġê¿Ī": 6248,
      "Ġattempt": 6249,
      "áº¡c": 6250,
      "acters": 6251,
      "ees": 6252,
      "ê³¡": 6253,
      "oken": 6254,
      "æīĵ": 6255,
      "ters": 6256,
      "åĦ": 6257,
      "Ġsquare": 6258,
      "oration": 6259,
      "ĠmÃ¡y": 6260,
      "iring": 6261,
      "ĠíķĺëĤĺëĭĺ": 6262,
      "Ġeconomic": 6263,
      "Ġimag": 6264,
      "åģļ": 6265,
      "é£Ł": 6266,
      "Ġì½": 6267,
      "rehens": 6268,
      "ìĿ´ë©°": 6269,
      "ãĢĢ": 6270,
      "ĠWorks": 6271,
      "58": 6272,
      "change": 6273,
      "Ġcool": 6274,
      "Ġdirection": 6275,
      "è®¾": 6276,
      "itable": 6277,
      "Ġforms": 6278,
      "^^": 6279,
      "Ġfight": 6280,
      "NO": 6281,
      "ĠìĤ¬ìĭ¤": 6282,
      "ulate": 6283,
      "ĠFirst": 6284,
      "reate": 6285,
      "ĠReg": 6286,
      "Ġcenter": 6287,
      "****************": 6288,
      "App": 6289,
      "ĠAP": 6290,
      "sum": 6291,
      "Ġtuy": 6292,
      "Ġbott": 6293,
      "Ġgiáº£i": 6294,
      "Ġpredict": 6295,
      "Ġobtain": 6296,
      ".py": 6297,
      "Ġprimary": 6298,
      "esus": 6299,
      "á»ĥn": 6300,
      "Ġnational": 6301,
      "aren": 6302,
      "Ġcauses": 6303,
      "Ġtrá»įng": 6304,
      "ãģ§ãĤĤ": 6305,
      "76": 6306,
      "Ġmachine": 6307,
      "Ġelectric": 6308,
      "à¸Ł": 6309,
      "minist": 6310,
      "ãĢĭ": 6311,
      "ĠìĹĨëĭ¤": 6312,
      "Ġdecl": 6313,
      "æľį": 6314,
      "Ġcompletely": 6315,
      "ĠphÃŃ": 6316,
      "Ġsche": 6317,
      "Ġgiá»¯": 6318,
      "QL": 6319,
      "ãĤ·ãĥ": 6320,
      "Ġeasier": 6321,
      "RC": 6322,
      "è¥¿": 6323,
      "known": 6324,
      "ĠMin": 6325,
      "Ġë°ķ": 6326,
      "atively": 6327,
      "osis": 6328,
      "ĠSouth": 6329,
      "My": 6330,
      "heet": 6331,
      "Ġfeature": 6332,
      "ĠÄĳá»ģu": 6333,
      "ulations": 6334,
      "Ġinteresting": 6335,
      "Ġê°ĻìĿ´": 6336,
      "ëĿ¼ëıĦ": 6337,
      "Ġmother": 6338,
      "ĠJust": 6339,
      "que": 6340,
      "ç·": 6341,
      "Ġtá»ķ": 6342,
      "ãģļ": 6343,
      "code": 6344,
      "Ġviol": 6345,
      "ãĢĬ": 6346,
      "hi": 6347,
      "osition": 6348,
      "source": 6349,
      "ARG": 6350,
      "Ġinj": 6351,
      "Ġcustomer": 6352,
      "ACK": 6353,
      "Ġsaying": 6354,
      "Ġformula": 6355,
      "120": 6356,
      "ĠphÃ¡p": 6357,
      "SCR": 6358,
      "íģ¼": 6359,
      "Ġsources": 6360,
      "Ġdownload": 6361,
      ":čĊ": 6362,
      "Ġfru": 6363,
      "ë²ł": 6364,
      "ìļ±": 6365,
      "Ġsustain": 6366,
      "workflow": 6367,
      "Ġwide": 6368,
      "olar": 6369,
      "Ġinsp": 6370,
      "Ġearth": 6371,
      "ĠìłľíĴĪ": 6372,
      "Ġbirth": 6373,
      "top": 6374,
      "Ġdefined": 6375,
      "æ»": 6376,
      "UILD": 6377,
      ".path": 6378,
      "ĠìķĦëŀĺ": 6379,
      "yl": 6380,
      "Ġseek": 6381,
      "ĠAlso": 6382,
      "Ġclimate": 6383,
      "used": 6384,
      "Ġvariables": 6385,
      "Ġlarger": 6386,
      "Ġtend": 6387,
      "ê·ł": 6388,
      "uit": 6389,
      "æĸĻ": 6390,
      "eta": 6391,
      "Ġemerg": 6392,
      "Ġcá»©": 6393,
      "Ġforward": 6394,
      "Ġsuccessful": 6395,
      "Ġìŀł": 6396,
      "à¸¹à¹Ī": 6397,
      "ĠìĦ¸ê³Ħ": 6398,
      "ëĪĦ": 6399,
      "ëħĲ": 6400,
      "Ġì°¾ìķĦ": 6401,
      "ĠMost": 6402,
      "'m": 6403,
      "Ġleading": 6404,
      "itution": 6405,
      "Ġwanted": 6406,
      "ĠìĿ´ë¦Ħ": 6407,
      "Ġtrá»ĭ": 6408,
      "sub": 6409,
      "Ġsil": 6410,
      "Ġder": 6411,
      "Ġsurv": 6412,
      "ENT": 6413,
      "ternal": 6414,
      "«a": 6415,
      "Ġgoals": 6416,
      "èĢĥ": 6417,
      "ç§į": 6418,
      "Ã¡m": 6419,
      "åĳĺ": 6420,
      "Ġsolutions": 6421,
      "Ġstarting": 6422,
      "Ġê¸°ëĬ¥": 6423,
      "éª": 6424,
      "isf": 6425,
      "eq": 6426,
      "Ġimmed": 6427,
      "Ġê²°ê³¼": 6428,
      "Ġìĥģíĥľ": 6429,
      "å·²": 6430,
      "Ġmoving": 6431,
      "Ġë³´ê³ł": 6432,
      "Ġactive": 6433,
      "Ġtrá»Ł": 6434,
      "Ġappropriate": 6435,
      "PE": 6436,
      "UB": 6437,
      "íķĦ": 6438,
      "ĠìĦľë¹ĦìĬ¤": 6439,
      "ĠëĦ£": 6440,
      "Ġstrength": 6441,
      "á»Ľ": 6442,
      "Ġà¸ª": 6443,
      "Ġìĭłì²Ń": 6444,
      "è·¯": 6445,
      "alle": 6446,
      "áº§m": 6447,
      "mary": 6448,
      "ãĤª": 6449,
      "Ġseason": 6450,
      "Ġitem": 6451,
      "ë§ģ": 6452,
      "Ġphone": 6453,
      "ĠëŃ": 6454,
      "ĠMat": 6455,
      "cient": 6456,
      "ëĭ¤ê°Ģ": 6457,
      "Ġdirectory": 6458,
      "ĠâĪĴ": 6459,
      "ì°°": 6460,
      "ship": 6461,
      "Ġobjects": 6462,
      "éĴ": 6463,
      "rf": 6464,
      "ä¸ŃåĽ½": 6465,
      "Ġnhau": 6466,
      "ament": 6467,
      "group": 6468,
      "ìŀ¥ìĿĦ": 6469,
      "II": 6470,
      "ĠScience": 6471,
      "Ġhappens": 6472,
      "object": 6473,
      "UM": 6474,
      "Ġchemical": 6475,
      "ĠEduc": 6476,
      "abet": 6477,
      "DF": 6478,
      "Ġpull": 6479,
      "íĮ¨": 6480,
      "leg": 6481,
      "Ġtay": 6482,
      "à¸§à¸¢": 6483,
      "ãĤĩ": 6484,
      "Ġgard": 6485,
      "Ġparticularly": 6486,
      "ĠMany": 6487,
      "Ġlegal": 6488,
      "Ġê¸°ìĪł": 6489,
      "OB": 6490,
      "å·±": 6491,
      "iful": 6492,
      "Ġreceive": 6493,
      "Ġ]Ċ": 6494,
      "à¸ģà¸±à¸Ļ": 6495,
      "dep": 6496,
      "ĠëĲĺìĸ´": 6497,
      "Ġhá»ĵ": 6498,
      "æĹ¥æľ¬": 6499,
      "íħľ": 6500,
      "ĠìĿ´ë¯¸": 6501,
      "force": 6502,
      "çĥ": 6503,
      "ferences": 6504,
      "rig": 6505,
      "Ġtransform": 6506,
      "ii": 6507,
      "Ġtrust": 6508,
      "Ġeye": 6509,
      "Ġê¸Ģ": 6510,
      "/Ċ": 6511,
      "ĠÄĳo": 6512,
      "itation": 6513,
      "Ġalgorith": 6514,
      "å²": 6515,
      "ãĤĥ": 6516,
      "Ġì¡°ê¸Ī": 6517,
      "wd": 6518,
      "ê·ľ": 6519,
      "ĠyÃªu": 6520,
      "ĠGener": 6521,
      "Ġsoil": 6522,
      "Ġwarm": 6523,
      "Ġfair": 6524,
      "áº³ng": 6525,
      "DS": 6526,
      "Ġsoon": 6527,
      "Ġstrategies": 6528,
      "ĠSystem": 6529,
      "_repo": 6530,
      "error": 6531,
      "ìĬ¤ë¥¼": 6532,
      "åŀ": 6533,
      "ĠíĬ¸": 6534,
      "Ġpsych": 6535,
      "ceed": 6536,
      "Ġìĺ¤ëĬĺ": 6537,
      "ĠJan": 6538,
      "ek": 6539,
      "ãĥĥãĥĪ": 6540,
      "à¹Ģà¸ª": 6541,
      "Ġsetting": 6542,
      "Ġsec": 6543,
      "Ġwe're": 6544,
      "])": 6545,
      "Ġapplications": 6546,
      "ĠGet": 6547,
      "¶ģ": 6548,
      "ĠëıĮìķĦ": 6549,
      "Ġbound": 6550,
      "å®Į": 6551,
      "Ġmovement": 6552,
      "Ġdegree": 6553,
      "Ġcoming": 6554,
      "Ġtransl": 6555,
      "Ġdrink": 6556,
      "Ġxe": 6557,
      "æµģ": 6558,
      "Ġbecomes": 6559,
      "Ġgrowing": 6560,
      "ns": 6561,
      "Ġreasons": 6562,
      "Ġdevices": 6563,
      "Ġargument": 6564,
      "ayer": 6565,
      "à¹īà¸²": 6566,
      "Ġtopic": 6567,
      "Ġcomfort": 6568,
      "Ġarr": 6569,
      "Ġmap": 6570,
      "Ġcuá»Ļc": 6571,
      "Ġveh": 6572,
      "à¸¶à¸ĩ": 6573,
      "ML": 6574,
      "Ġroad": 6575,
      "ĠGoogle": 6576,
      "Ġdetails": 6577,
      "unc": 6578,
      "Ġsect": 6579,
      "ç¼": 6580,
      "False": 6581,
      "ê¹Ģ": 6582,
      "Ġmess": 6583,
      "Ġìĸ´ëĸ»ê²Į": 6584,
      "Type": 6585,
      "ç©º": 6586,
      "ìĦ¼": 6587,
      "Ġimportance": 6588,
      "Ġìľłì§Ģ": 6589,
      "ä»İ": 6590,
      "ĠìĤ¬ìĿ´": 6591,
      "````": 6592,
      "Ġchallenges": 6593,
      "Ġê´Ģë¦¬": 6594,
      "Ġrights": 6595,
      "ãĥĩ": 6596,
      "à¹ĥà¸Ĭ": 6597,
      "çĻ½": 6598,
      "lam": 6599,
      "Ġincluded": 6600,
      "ĠÄĳáº¡i": 6601,
      "ĠíĤ¤": 6602,
      "Ġhar": 6603,
      "á»Ŀ": 6604,
      "obile": 6605,
      "çĲĥ": 6606,
      "Ġdark": 6607,
      "Ġrot": 6608,
      "Ġbalance": 6609,
      "yond": 6610,
      "Ġpython": 6611,
      "ĠTest": 6612,
      "encies": 6613,
      "Ġì¤Ģë¹Ħ": 6614,
      "CON": 6615,
      "olic": 6616,
      "Ġpolicy": 6617,
      "Ġì¤ĳìļĶíķľ": 6618,
      "à¸Ħà¸¸": 6619,
      "cast": 6620,
      "At": 6621,
      "åįģ": 6622,
      "SB": 6623,
      "Ġden": 6624,
      "ĠphÃ²ng": 6625,
      "Ġpatient": 6626,
      "Ġcharacters": 6627,
      "ëĵ¤ê³¼": 6628,
      "annel": 6629,
      "ĠRem": 6630,
      "ìĽĢ": 6631,
      "åºĶ": 6632,
      "Ġíķ©": 6633,
      "Ġê¸°ìĹħ": 6634,
      "ìĨĲ": 6635,
      "çĸ": 6636,
      "Ġrá»ĵi": 6637,
      "ë¥ł": 6638,
      "ĠNorth": 6639,
      "ê±¸": 6640,
      "Ġdemonstr": 6641,
      "pack": 6642,
      "rench": 6643,
      "ipe": 6644,
      "ĠOur": 6645,
      "ì²ł": 6646,
      "Ġëĸł": 6647,
      "Ġrecommend": 6648,
      "Ġtre": 6649,
      "Col": 6650,
      "Ġsolve": 6651,
      ".gz": 6652,
      "ĠBecause": 6653,
      "cal": 6654,
      ".conf": 6655,
      "ä¸ĩ": 6656,
      "ronic": 6657,
      "æĪĳä»¬": 6658,
      "Ġë¸Ķ": 6659,
      "íı°": 6660,
      "ĠtÃ¬m": 6661,
      "ì¤Ħ": 6662,
      "ëĵ¯": 6663,
      "Ġë¨¸": 6664,
      "true": 6665,
      "haps": 6666,
      "-e": 6667,
      "ĠRep": 6668,
      "body": 6669,
      "Ġopportunities": 6670,
      "ĠìĤ¬íļĮ": 6671,
      "Ġactual": 6672,
      "Ġguid": 6673,
      "à¸Ħà¸Ļ": 6674,
      "ãģĹãģĦ": 6675,
      "Ġdry": 6676,
      "ä»»": 6677,
      "Ġìłķë§Ĳ": 6678,
      "Ġì¶Ķê°Ģ": 6679,
      "Ġvolume": 6680,
      "izations": 6681,
      "Ġstuff": 6682,
      "Ġmkdir": 6683,
      "Ġvisual": 6684,
      "à¸§à¹Īà¸²": 6685,
      "ĠClass": 6686,
      "Ġtold": 6687,
      "åºĹ": 6688,
      "Ġhit": 6689,
      "Ġìī½": 6690,
      "åıª": 6691,
      "Ġclick": 6692,
      "Ð½": 6693,
      "ĠìĹĦ": 6694,
      "ensity": 6695,
      "ping": 6696,
      "Ġlost": 6697,
      "uk": 6698,
      "èĳ": 6699,
      "refix": 6700,
      "Ġscale": 6701,
      "æĬĢ": 6702,
      "Ġcaused": 6703,
      "ditionally": 6704,
      "ëĲĺê³ł": 6705,
      "Id": 6706,
      "ãĥĥãĤ¯": 6707,
      "ãĤ¦": 6708,
      "Ġconnection": 6709,
      "ë¡Ģ": 6710,
      "Ġexperiences": 6711,
      "Ġrule": 6712,
      "><": 6713,
      "ëĥ¥": 6714,
      "Ġclasses": 6715,
      "ech": 6716,
      "Ġì§ĢìĹŃ": 6717,
      "Ġbiá»ĩt": 6718,
      "Ġchance": 6719,
      "ĠtÄĥng": 6720,
      "íĺĢ": 6721,
      "Ġyou've": 6722,
      "open": 6723,
      "Ġhighly": 6724,
      "ì¼ľ": 6725,
      "heets": 6726,
      "och": 6727,
      "ì§Ģê³ł": 6728,
      "ëľ": 6729,
      "ĠìķĦëĭĮ": 6730,
      "ades": 6731,
      "à¤": 6732,
      "à¸Ńà¸ļ": 6733,
      "rors": 6734,
      "elebr": 6735,
      "plot": 6736,
      "},": 6737,
      "Ġbeginning": 6738,
      "Ġáº£nh": 6739,
      "oe": 6740,
      "Ġmiddle": 6741,
      "ìĿ¸ìĿĺ": 6742,
      "Ġadapt": 6743,
      "à¸§à¹Īà¸²à¸": 6744,
      "æĮĩ": 6745,
      "Ġexport": 6746,
      "Ġpoor": 6747,
      "orpor": 6748,
      "åĻ": 6749,
      "lock": 6750,
      "ĠThat's": 6751,
      "Ġoptim": 6752,
      "Ġcollege": 6753,
      "Ġkhu": 6754,
      "Ġmathemat": 6755,
      "Ã¬n": 6756,
      "arser": 6757,
      "ì»¤": 6758,
      "Ġvia": 6759,
      "Ġcompared": 6760,
      "________________": 6761,
      "éĵ": 6762,
      "ãĥī": 6763,
      "Ġmanufact": 6764,
      "Ġê¸°ì¤Ģ": 6765,
      "áº¹p": 6766,
      "Ġpush": 6767,
      "Ġefficient": 6768,
      "Ġign": 6769,
      "FF": 6770,
      "ĠíĹĪ": 6771,
      "Now": 6772,
      "ĠdÆ°á»": 6773,
      "çĶ±": 6774,
      "otes": 6775,
      "Ã³c": 6776,
      "Ġassum": 6777,
      "Ġdemand": 6778,
      "ĠìľĦì¹ĺ": 6779,
      "rim": 6780,
      "ĠÄĳá»ķ": 6781,
      ":-": 6782,
      "ê·¸ëŀ¨": 6783,
      "Ġstatement": 6784,
      "Ġpowerful": 6785,
      ">ĊĊ": 6786,
      "ĠSm": 6787,
      "ĠâĢ¢": 6788,
      "ĠìŀĪìĹĪëĭ¤": 6789,
      "Ġaren't": 6790,
      "Ġshift": 6791,
      "Ġenter": 6792,
      "Ġë¬´ìĹĩ": 6793,
      "/f": 6794,
      "ĠbÃªn": 6795,
      "Ġproperties": 6796,
      "ÑĢ": 6797,
      "ĠMon": 6798,
      "íį¼": 6799,
      "ĠíĺĦìŀ¬": 6800,
      "Ġeth": 6801,
      "etch": 6802,
      "string": 6803,
      "ĠìĺģíĻĶ": 6804,
      "Ġfavor": 6805,
      "ëī´": 6806,
      "ĠJesus": 6807,
      "Ġled": 6808,
      "ì§ľ": 6809,
      "round": 6810,
      "Ġpan": 6811,
      "Ġê·ľ": 6812,
      "ãģ¨æĢĿ": 6813,
      "ester": 6814,
      "å¹¶": 6815,
      "Ġprivate": 6816,
      "è§Ĩé¢ĳ": 6817,
      "Ġplayers": 6818,
      "âĺ": 6819,
      "ĠEd": 6820,
      "Ġtriá»ĥn": 6821,
      "Ġmember": 6822,
      "ĠDay": 6823,
      "Ġblog": 6824,
      "ãģ¾ãģĽ": 6825,
      "ĠìĿ½": 6826,
      "Ġsignal": 6827,
      "tes": 6828,
      "èĩªå·±": 6829,
      "Ġcustomers": 6830,
      "Ġplayer": 6831,
      "ĠOb": 6832,
      "ìĭľëĬĶ": 6833,
      "ìī": 6834,
      "Ġì¢Ģ": 6835,
      "abilities": 6836,
      "unk": 6837,
      "Ġëªĩ": 6838,
      "Ġplaces": 6839,
      "Ġdistribution": 6840,
      "Ġhon": 6841,
      "emp": 6842,
      "uster": 6843,
      "Ġstru": 6844,
      "Ġmarketing": 6845,
      "ç§ĳ": 6846,
      "Ġdrive": 6847,
      "ROOT": 6848,
      "çĬ": 6849,
      "ĠìĹ¬íĸī": 6850,
      "-pro": 6851,
      "ĠMath": 6852,
      "pid": 6853,
      "ëĵľëĬĶ": 6854,
      "Ġíķ´ëĭ¹": 6855,
      "Ġdecre": 6856,
      "ìĭŃ": 6857,
      "æ¥Ń": 6858,
      "çĪ±": 6859,
      "89": 6860,
      "github": 6861,
      "æ±Ĥ": 6862,
      "Ġzero": 6863,
      "home": 6864,
      "Ġbáº¥t": 6865,
      "Ġpiece": 6866,
      "That": 6867,
      "ëĲľëĭ¤": 6868,
      "Ġdang": 6869,
      "à¸ģà¸£": 6870,
      "]]": 6871,
      "-Ċ": 6872,
      "194": 6873,
      "Ġsend": 6874,
      "195": 6875,
      "Ġlá»±c": 6876,
      "param": 6877,
      "Ġlate": 6878,
      "Ġbegan": 6879,
      "().": 6880,
      "Ġdead": 6881,
      "Ġassert": 6882,
      "_CO": 6883,
      "ĠíĶĮ": 6884,
      ").Ċ": 6885,
      "Ġburn": 6886,
      "Des": 6887,
      "Ġpair": 6888,
      "192": 6889,
      "iá»ħn": 6890,
      "Ġgiving": 6891,
      "Ġë¸Į": 6892,
      "Ġadjust": 6893,
      "iar": 6894,
      "IR": 6895,
      "start": 6896,
      "=('": 6897,
      "Ġsmaller": 6898,
      "FA": 6899,
      "can": 6900,
      "Ġlimited": 6901,
      "hel": 6902,
      "ĠìĿ´ëłĩê²Į": 6903,
      "Ġtho": 6904,
      "Ġinstruct": 6905,
      "Ġpublished": 6906,
      "Ġbank": 6907,
      "âĢĭ": 6908,
      "Ġprojects": 6909,
      "DA": 6910,
      "Ġhyd": 6911,
      "ĠthÃ¢n": 6912,
      "ĠWill": 6913,
      "LOG": 6914,
      "rote": 6915,
      "Ñģ": 6916,
      "Ġcand": 6917,
      "ĠFind": 6918,
      "Ġboard": 6919,
      "Ġtrang": 6920,
      "-S": 6921,
      "Ġtalking": 6922,
      "pha": 6923,
      "Ġë²ł": 6924,
      "çħ": 6925,
      "ha": 6926,
      "ocation": 6927,
      "Ġcurrently": 6928,
      "ĠthÆ°Æ¡ng": 6929,
      "âĶĢ": 6930,
      "vis": 6931,
      ".net": 6932,
      "à¸¶à¹Īà¸ĩ": 6933,
      "Ġláº§n": 6934,
      "Ġproced": 6935,
      "ï¼Į": 6936,
      "èİ": 6937,
      "which": 6938,
      ">&": 6939,
      "ibly": 6940,
      "çķĮ": 6941,
      "ë³¼": 6942,
      "ĠOther": 6943,
      "urt": 6944,
      "æĬķ": 6945,
      "inct": 6946,
      "Ġmis": 6947,
      "Ġthreat": 6948,
      "Ġimm": 6949,
      "Ġfarm": 6950,
      "Ġê¶Į": 6951,
      "ë¦¬ìĬ¤": 6952,
      "Ġë³Ħ": 6953,
      "Ġprocesses": 6954,
      "Ġë©´": 6955,
      "Ġrates": 6956,
      "itute": 6957,
      "ĠchÆ¡i": 6958,
      "Ġsugar": 6959,
      "works": 6960,
      "å®¹": 6961,
      "ĠGi": 6962,
      "Ġfilm": 6963,
      ".[": 6964,
      "Ġincome": 6965,
      "Inst": 6966,
      "ĠìĥĪë¡ľìļ´": 6967,
      "ses": 6968,
      "ĠKing": 6969,
      "ned": 6970,
      "69": 6971,
      "URL": 6972,
      "ipment": 6973,
      "ĠtÃłi": 6974,
      "Ġhair": 6975,
      "Ġfoods": 6976,
      "57": 6977,
      "Ġë¯¼": 6978,
      "undred": 6979,
      "ãĤ¨": 6980,
      "ĠíĻľìļ©": 6981,
      "ĠCount": 6982,
      "Ġbusinesses": 6983,
      "Ġheight": 6984,
      "_VERSION": 6985,
      "ìĹĲìĦľëıĦ": 6986,
      "600": 6987,
      "æĪĸ": 6988,
      "ooth": 6989,
      "level": 6990,
      "Ġë³ĳ": 6991,
      "ĠFin": 6992,
      "Ġtri": 6993,
      "Ġlooks": 6994,
      "Ġkáº¿": 6995,
      "api": 6996,
      "augh": 6997,
      "Ġë¯¸êµŃ": 6998,
      "Ġdetect": 6999,
      "çĦ¡": 7000,
      "åĮĹ": 7001,
      "Ġcontribut": 7002,
      "cel": 7003,
      "ĠEach": 7004,
      "Ġdivid": 7005,
      "ĠëĤĺìĺ¤": 7006,
      "æ£": 7007,
      "Ġchu": 7008,
      "Ġready": 7009,
      "¿ł": 7010,
      "xx": 7011,
      "ĠthÃªm": 7012,
      "ë¥´ëĬĶ": 7013,
      "Ġorganization": 7014,
      "Ġfamilies": 7015,
      "ĠìĪĺëıĦ": 7016,
      "Ġnáº¿u": 7017,
      "Ġsao": 7018,
      "ĠíĮ¨": 7019,
      "ìĿ¸ì§Ģ": 7020,
      "care": 7021,
      "Ġbao": 7022,
      "aur": 7023,
      "iá»ĩm": 7024,
      "ìŀ¡": 7025,
      "ĠìĿ´íķ´": 7026,
      "')ĊĊ": 7027,
      "_ex": 7028,
      "(m": 7029,
      "å®¢": 7030,
      "Ġswe": 7031,
      "Ġthous": 7032,
      "ĠÂłĠÂłĠÂłĠÂł": 7033,
      "Ġstories": 7034,
      "ì°¬": 7035,
      "Ġíı¬íķ¨": 7036,
      "ĠIndia": 7037,
      "itect": 7038,
      "Ġwood": 7039,
      "ìŀĲë¥¼": 7040,
      "ãĥĳ": 7041,
      "Ġ**": 7042,
      "ĠJapan": 7043,
      "æ§": 7044,
      "ëıĮ": 7045,
      "Ġtitle": 7046,
      "Ġresearchers": 7047,
      "Ġchá»ĭ": 7048,
      "Ġplaying": 7049,
      "åŁİ": 7050,
      "while": 7051,
      "ĠAut": 7052,
      "ĠìŀĲìĭłìĿĺ": 7053,
      "utils": 7054,
      "åħī": 7055,
      "Ġconvers": 7056,
      "rict": 7057,
      "ios": 7058,
      "bb": 7059,
      "Ġpages": 7060,
      "å¼º": 7061,
      "Ġê·¸ê²ĥ": 7062,
      "request": 7063,
      "á»ħ": 7064,
      "Ġsaw": 7065,
      "Val": 7066,
      "Ġcapac": 7067,
      "Ġqual": 7068,
      "ĠAc": 7069,
      "ëĿ¼ìĿ´": 7070,
      "æł·": 7071,
      ".*": 7072,
      "Ġtesting": 7073,
      "800": 7074,
      "ĠíĽ": 7075,
      "Ġchanged": 7076,
      "ëł¤ê³ł": 7077,
      "Ġestim": 7078,
      "Ġreact": 7079,
      "ildren": 7080,
      "cos": 7081,
      "Ġjourney": 7082,
      "ĠìĤ¬ëŀĮìĿ´": 7083,
      "lement": 7084,
      "Ġupd": 7085,
      "plain": 7086,
      "ãĥĭ": 7087,
      "ĠìĿ´ëŁ¬íķľ": 7088,
      "Ġmaster": 7089,
      "Ġstrategy": 7090,
      "Ġì´Ŀ": 7091,
      "aset": 7092,
      "à¸Ńà¸¢à¹Īà¸²à¸ĩ": 7093,
      "ìĭľíĤ¤": 7094,
      "Ġwoman": 7095,
      "Ġstage": 7096,
      "ìĸ´ëĤĺ": 7097,
      "They": 7098,
      "ĠMake": 7099,
      "æ³¨": 7100,
      "ighb": 7101,
      "101": 7102,
      "BS": 7103,
      "ìķĦìĦľ": 7104,
      "aper": 7105,
      "ros": 7106,
      "Ġ...ĊĊ": 7107,
      "oding": 7108,
      "Ġthá»ĳng": 7109,
      "orch": 7110,
      "Ġsus": 7111,
      "lo": 7112,
      "á»ĵn": 7113,
      "èĬ±": 7114,
      "olve": 7115,
      "ìķĮ": 7116,
      "PT": 7117,
      "ĠtáºŃp": 7118,
      "ĠData": 7119,
      "éĹ®": 7120,
      "erate": 7121,
      "Ġthá»§": 7122,
      "Ġwild": 7123,
      "Ġvalu": 7124,
      "Ġchiáº¿": 7125,
      "er's": 7126,
      "FIX": 7127,
      "Ġìĭľìŀ¥": 7128,
      "Ġreference": 7129,
      "ders": 7130,
      "Ġcareer": 7131,
      "ĠìķĬìĿĢ": 7132,
      "íķ´ë³´": 7133,
      "Ġdiagn": 7134,
      "ëıĦë¥¼": 7135,
      "ocial": 7136,
      "oes": 7137,
      "ãģ¾ãģĽãĤĵ": 7138,
      "ĠEven": 7139,
      "ĠYork": 7140,
      "ĠíĬ¹íŀĪ": 7141,
      "ä¸¤": 7142,
      "ĠìĦľìļ¸": 7143,
      "çĶ»": 7144,
      "ĠOut": 7145,
      "FS": 7146,
      "vere": 7147,
      "ìĪĺë¥¼": 7148,
      "Ġstraight": 7149,
      "ĠhoÃłn": 7150,
      "Ġê²½íĹĺ": 7151,
      "PATH": 7152,
      "ĠhÃ³a": 7153,
      "Ġbroad": 7154,
      "USER": 7155,
      ".y": 7156,
      "ì¸¡": 7157,
      "Ġacad": 7158,
      "Ġenvironmental": 7159,
      "Ġmatrix": 7160,
      "Ġtherefore": 7161,
      "flict": 7162,
      "Ġchá»©c": 7163,
      "ĠDef": 7164,
      "åħ¬åı¸": 7165,
      "âĢľ": 7166,
      "Ġunits": 7167,
      "68": 7168,
      "Ġgrade": 7169,
      "Ġmys": 7170,
      "ellig": 7171,
      "Ġdeveloping": 7172,
      "íķĺìĦ¸ìļĶ": 7173,
      "result": 7174,
      "_se": 7175,
      "Ġcold": 7176,
      "ç¡": 7177,
      "Ġhear": 7178,
      "TT": 7179,
      "Ġbenefit": 7180,
      "ĠProgram": 7181,
      "../": 7182,
      "Ġfeeling": 7183,
      "Ġmount": 7184,
      "ĠTrans": 7185,
      "Ġlabel": 7186,
      "ĠHo": 7187,
      "Ġë§ī": 7188,
      "Âłê²ĥ": 7189,
      "ç«Ļ": 7190,
      "soft": 7191,
      "Ġcarry": 7192,
      "à¹Ĥà¸Ķ": 7193,
      "ĠëĤľ": 7194,
      "conds": 7195,
[...]
